{"Ġjoints": 24039, "ĠCelest": 47245, "ĠR": 371, "ĠDOM": 24121, "Ven": 37522, "ĠCOMPLE": 49269, "ĠYor": 42453, "ĠFrank": 5278, "Ġcore": 4755, "Els": 45507, "ĠStack": 23881, "ĠLibre": 44384, "Ġsad": 6507, "ĠChinese": 3999, "ĠMilwaukee": 16629, "Ġscale": 5046, "entanyl": 41455, "uran": 42211, "ĠFac": 13585, "Ġparody": 29695, "ĠLiang": 43322, "ĠSAP": 48323, "Ġsag": 45229, "akis": 27321, "Ġnevertheless": 19032, "ĠMyster": 12099, "Ġamenities": 35468, "Ġpresents": 10969, "assy": 11720, "ĠKyr": 42748, "ĠResist": 36136, "blocks": 27372, "ĠSil": 4243, "ĠMil": 4460, "Ġpri": 1293, "encia": 29634, "Say": 25515, "slot": 43384, "Ġregularly": 7987, "Ġsecretion": 42432, "ĠMichel": 12386, "ĠCorporate": 26040, "checks": 42116, "ĠApplications": 26622, "regnancy": 39982, "Ġdemolished": 33359, "Ġjointly": 26913, "Norm": 35393, "860": 45039, "ikk": 36073, "Ġunderstands": 14759, "209": 22567, "Ġyouthful": 35444, "Ġpossibility": 5885, "hend": 15631, "ĠEqual": 28701, "ĠSz": 27974, "PAR": 27082, "Ġbottled": 34123, "ĠSummoner": 49167, "ĠSinn": 41870, "Ġup": 510, "Mas": 38224, "ĠAnti": 12297, "Ġejac": 39426, "Ġimmun": 16217, "ule": 2261, "Pur": 30026, "Ġdislike": 23109, "ĠPCB": 28700, "rolled": 8375, "ĠJiu": 42310, "Ġpharm": 10113, "ohm": 34028, "ĠParks": 20604, "aca": 22260, "ĠDirt": 49124, "Ġflags": 9701, "++)": 29577, "ĠNutr": 37012, "Justice": 28447, "exp": 11201, "Edward": 43982, "ĠHugo": 25930, "Ġbalk": 48776, "ĠPremiere": 44151, "punk": 30354, "ĠRB": 17986, "ĠPAL": 40795, "Ġinhabitants": 17622, "dim": 27740, "ĠChange": 9794, "picture": 34053, "ĠUsually": 19672, "sit": 48937, "Ġsampled": 35846, "ire": 557, "ĠViol": 13085, "ĠNASCAR": 30774, "ĠDre": 30882, "1964": 46477, "amins": 24937, "ĠPebble": 46041, "iner": 7274, "geons": 16297, "shift": 30846, "office": 31810, "eting": 13629, "ranean": 16474, "ĠRidley": 39616, "Ġaer": 9551, "basic": 35487, "Â®": 7461, "ĠMidnight": 27960, "Ġvigilante": 49326, "Ġpops": 26384, "ĠIslamist": 17780, "ĠParticip": 13928, "Ġdispers": 39895, "Ġlumber": 34840, "Ġstun": 7991, "Ġtranscend": 26231, "Ġslumped": 48560, "Ġtripled": 43761, "Ġfutile": 35322, "ĠHarding": 45732, "ropri": 9219, "ĠRender": 46722, "Chan": 48407, "compl": 23855, "ĠKathy": 33726, "ĠReplay": 23635, "Ġbuttocks": 50193, "..................": 49129, "uma": 7487, "ĠATM": 30939, "Ġpersists": 35545, "ĠSiberia": 41515, "Types": 31431, "ĠLer": 31831, "Ġgasp": 47440, "ĠShah": 18381, "Ġimproper": 18992, "Ġtu": 12777, "Ġhavens": 47450, "ĠRory": 37178, "aced": 2286, "Capital": 39315, "327": 34159, "Ġutility": 10361, "Ġliner": 35940, "ĠStrauss": 42971, "Ġcontent": 2695, "Ġsoccer": 11783, "CH": 3398, "ĠCARD": 48731, "ĠBok": 47390, "Ġtrave": 10160, "icut": 13554, "Ġpacket": 19638, "---": 6329, "icating": 12364, "Ġsubversive": 49685, "ĠNV": 23973, "Everybody": 28172, "WB": 45607, "ĠSatoshi": 40824, "ĠLucifer": 27084, "Ġchoke": 28504, "ĠRescue": 17285, "ĠAccounting": 40964, "Ġsquee": 13170, "kos": 46150, "Ġshow": 905, "Ġduty": 7077, "ĠHendricks": 42476, "Ġpotassium": 33156, "ĠInfantry": 27749, "ĠTenth": 44519, "auto": 23736, "PD": 5760, "Ġreductions": 20691, "Ġcivic": 23265, "waters": 41555, "Ġpure": 5899, "serving": 31293, "Ġnicotine": 21856, "should": 21754, "128": 12762, "ob": 672, "ĠPrevent": 31572, "loaded": 14578, "Ġbubbles": 25037, "ĠBain": 33126, "Ġfilibuster": 38940, "bear": 33227, "Ġinitiated": 16862, "agically": 39066, "Ġ000000": 41853, "ĠAbel": 42474, "command": 21812, "Ġrebirth": 43446, "Ġvocabulary": 25818, "Ġmatte": 36908, "444": 30272, "abbling": 47883, "Ġerased": 33588, "rament": 15141, "Ġpupil": 34047, "ĠLove": 5896, "ĠUX": 38179, "Ġbrute": 33908, "ĠCurrently": 16888, "Ġshocks": 32392, "ĠMartinez": 20741, "ĠLibya": 13465, "iso": 26786, "ĠAuschwitz": 37992, "annels": 8961, "orn": 1211, "291": 33551, "HTML": 28656, "network": 27349, "ALL": 7036, "Runtime": 41006, "STAT": 35744, "Ġinvent": 8067, "0010": 37187, "Ġres": 581, "Ġsyntax": 15582, "tes": 4879, "Ġno": 645, "Ġfeeble": 46299, "Ġon": 319, "Interstitial": 29447, "Ġmodifying": 30620, "ĠPictures": 20051, "istics": 3969, "Atl": 25255, "Ġbaths": 49076, "Ġplane": 6614, "ĠScorpion": 48821, "ĠTABLE": 43679, "Ġobjected": 29811, "Ġstere": 10268, "ĠHerman": 25028, "Ġric": 12410, "nea": 39718, "Brook": 45534, "Ġauthorization": 19601, "Ġpublishes": 34134, "Ġhers": 25144, "reen": 1361, "Ġmailed": 37789, "76": 4304, "lv": 6780, "utz": 27839, "Ġhard": 1327, "Female": 27273, "plan": 11578, "Ġproduces": 11073, "ĠRabb": 22502, "Ġtriglycer": 47937, "Ġstal": 29049, "Ġsacrifice": 11728, "Ġext": 1070, "Ġseals": 29718, "Ġstorytelling": 23689, "________________________________________________________________": 27193, "ĠNG": 39058, "Ġgenuine": 8768, "Ġdownturn": 34540, "ĠArmour": 23752, "Cr": 13916, "ĠBattle": 5838, "ĠFriendship": 39993, "Ġswallowed": 27961, "Apparently": 30402, "Crypt": 23919, "Ġmushroom": 28520, "Ġreintrodu": 38368, "ĠSenegal": 49657, "ĠMusic": 7849, "ĠCad": 20517, "ĠIdent": 11440, "Ġmatter": 2300, "ĠCollect": 9745, "Ġstanding": 5055, "ĠWool": 24759, "Ġapparatus": 21152, "8": 23, "Ġinj": 2529, "Ġie": 37941, "Ġincl": 13358, "Ġspeeding": 26347, "ĠPositive": 33733, "Ġ[/": 46581, "Ġsiph": 44105, "ĠPromise": 34920, "Ġindependent": 4795, "Ġlipid": 34073, "Ġagg": 4194, "âĵĺ": 45563, "ĠMohammad": 29674, "Ġobser": 7961, "Ġmarched": 23558, "Ġtelev": 22884, "ku": 23063, "Ġuncertainties": 36553, "YES": 43335, "Ġdownloads": 21333, "Feed": 18332, "ĠCato": 44509, "ĠCrown": 12223, "ĠCohen": 17154, "ĠMamm": 39502, "Ġwine": 8237, "Ġadhesive": 43608, "Ġesche": 42833, "Ġperl": 48746, "rough": 740, "Bul": 33481, "Mini": 39234, "ĠSkyrim": 21789, "pse": 7752, "Ġcatapult": 48786, "Ġdread": 15157, "\\\\\\\\": 13426, "Islamic": 26723, "COLOR": 46786, "ĠChao": 41024, "law": 6270, "ocked": 3543, "ĠZeus": 20620, "lol": 47288, "ĠUKIP": 37809, "ĠWanted": 41536, "Ġurge": 14960, "Ġmolten": 44030, "Ġattempt": 2230, "ĠAlger": 26832, "ĠTR": 7579, "Ġloaf": 40134, "ĠCostco": 46889, "Ġcynicism": 49509, "favorite": 35200, "national": 14648, "ÂłÂłÂłÂłÂłÂłÂłÂłÂłÂłÂłÂłÂłÂłÂłÂł": 39172, "Ring": 39687, "Ġsex": 1714, "Ġdeveloped": 4166, "Ġprevail": 28615, "ĠApplication": 15678, "Ġyeah": 10194, "ĠAIDS": 20408, "Ġanalogue": 45304, "Matt": 13448, "ĠALP": 42674, "ĠRusso": 46855, "IPS": 47643, "Ġtrue": 2081, "worldly": 49366, "nexus": 44520, "ivities": 28720, "Ġmentioned": 4750, "Ġinappropriately": 49190, "Ġshaken": 27821, "Ġknowledgeable": 29549, "ĠVAL": 26173, "intestinal": 36387, "Ġanimation": 11034, "Ġmega": 23465, "Ġdisplaced": 20085, "breakers": 49295, "ĠPetra": 37285, "ĠCourage": 37106, "Ġsupremacists": 37084, "Ġinstit": 6113, "Ġpalm": 18057, "ĠElk": 40151, "ĠTime": 3862, "Ġrecalls": 16865, "finished": 43952, "Ġboosted": 29657, "ĠBureau": 9840, "Ġoutlines": 27430, "Ġmigrating": 45879, "irmation": 36241, "ocrine": 38658, "ĠDiet": 16292, "ĠWolverine": 34307, "Ġselfish": 20363, "Bra": 42333, "ĠAlberto": 40649, "WHAT": 32971, "iae": 33100, "OUR": 11698, "Ġrusher": 47608, "ked": 9091, "ĠPhys": 8687, "ĠTour": 9852, "ancies": 16183, "TING": 48996, "behavior": 46571, "Ġministers": 14138, "bee": 20963, "Ġpiss": 18314, "Ġdont": 17666, "ĠGoldman": 18740, "ĠBrisbane": 26914, "Ġsketches": 34035, "Ġstarch": 39515, "Ġepoch": 36835, "36": 2623, "gha": 46090, "ĠBeng": 14964, "ĠPage": 7873, "ĠHumanity": 35629, "leeve": 49189, "Ġknights": 27536, "Ġanticipation": 24054, "rint": 22272, "Ġyour": 534, "sbm": 32310, "orrect": 47315, "ĠVisa": 27645, "493": 43134, "Ġcomprising": 27918, "Ġtore": 26197, "ĠWriter": 26606, "ā": 189, "995": 33438, "Ġconfused": 10416, "ampoo": 40239, "renheit": 34032, "CR": 9419, "Ġfracture": 31846, "rolling": 18886, "affe": 21223, "Ġcontinued": 3767, "ĠOption": 16018, "Add": 4550, "ĠAtk": 36379, "Ãī": 38351, "Chart": 45488, "526": 48531, "Ġunintended": 30261, "Ġaffirm": 16266, "221": 26115, "Ġperipher": 18375, "509": 29022, "Ru": 40464, "Ġfulf": 8456, "imm": 8608, "spring": 16469, "Ġinfrastructure": 6884, "Ġstopp": 43804, "Ġconvenience": 15607, "Ġextrater": 42024, "Ġsizes": 10620, "Ġrealizes": 23660, "Ġbillionaires": 34740, "vt": 36540, "Ġriders": 13750, "Ġhealer": 44325, "ĠFall": 7218, "Ġsuppressed": 25822, "Ġindie": 19907, "Ne": 8199, "form": 687, "ĠColumbia": 9309, "Ġfooth": 36522, "olds": 10119, "Ġsince": 1201, "Ġanswered": 9373, "ĠAdvantage": 45318, "ĠKenny": 22102, "responsive": 39772, "ĠFu": 13333, "Ġundersc": 27840, "Ġestate": 7964, "Ġstructured": 20793, "crypt": 29609, "Mega": 43471, "CA": 8141, "Ġfake": 8390, "Ġventures": 33787, "Ġspit": 27591, "aptic": 32963, "stic": 11268, "ĠCrafting": 44450, "ĠMUS": 39484, "Ġscarcely": 32335, "Ġrune": 35930, "Ġreckoned": 46630, "ĠWiz": 41122, "ĠPrinted": 38482, "sea": 8583, "Ġsabotage": 31983, "ĠDisk": 31664, "ired": 1202, "ablishment": 25380, "crim": 50086, "215": 23349, "Ġtallest": 38760, "Ġaccommodating": 49389, "cru": 32838, "Ġhydra": 25039, "Elsewhere": 49374, "ĠCoach": 16393, "Ġdevise": 44668, "Ġrough": 5210, "Linux": 19314, "ĠIranian": 10704, "cular": 10440, "Ġlifestyles": 43644, "calling": 44714, "Ġtid": 29770, "Ġoverdue": 38079, "ĠWorld": 2159, "Ġencouragement": 27529, "achel": 9636, "ĠSop": 35643, "ĠGREEN": 47606, "ĠEsp": 20386, "Ġcaricature": 47346, "Ġconverter": 38394, "DIV": 33569, "Asia": 38555, "Dou": 40287, "doctor": 35580, "uce": 7234, "Ġfec": 27685, "Ġaccessible": 9857, "ĠIbrahim": 30917, "ĠPlanned": 18451, "Complete": 20988, "ĠYog": 31604, "YD": 35755, "ĠChron": 8750, "ĠMalcolm": 20002, "Ġprocession": 37968, "Ġdisruptive": 28094, "Ġdisrespectful": 41987, "erie": 18287, "ĠUnemployment": 47332, "Ġhepat": 32070, "Mid": 22622, "above": 29370, "finding": 41070, "Monster": 40872, "Ġdisclosed": 16404, "Ġinv": 800, "Ġmothers": 12289, "little": 31629, "Ġdance": 9280, "Short": 16438, "Ġhairy": 43873, "Ġ353": 47567, "Ġcaused": 4073, "ĠReligion": 21741, "-+-+-+-+": 42744, "wing": 5469, "Ġsuccessfully": 7675, "phony": 23021, "ĠJude": 30044, "ĠMinotaur": 40558, "seed": 28826, "Ġdimensions": 15225, "Ġfarmland": 45723, "tml": 20369, "]).": 35944, "ĠArche": 43572, "Ġtasked": 23052, "Ġbred": 33592, "ĠWHERE": 33411, "Ġgarden": 11376, "Resp": 19309, "ITED": 22061, "Ġmos": 10867, "NULL": 33991, "Ġinstance": 4554, "ĠMoroccan": 49323, "Ġepilepsy": 35325, "Mem": 13579, "REM": 40726, "ails": 1768, "NOT": 11929, "Ġrecommending": 34639, "ĠIncrease": 25285, "container": 34924, "Ġrese": 1599, "195": 22186, "weeney": 41681, "EMA": 27630, "Ġgroin": 42247, "ĠTues": 48496, "Ġhumiliated": 42659, "Ġfuriously": 44896, "See": 6214, "Ġbranding": 24150, "Ġreferral": 31413, "ĠZ": 1168, "isans": 26100, "Ġsuspects": 11826, "Ġprototype": 14879, "search": 12947, "Ġintestine": 45426, "Wild": 25946, "Ġseams": 41280, "Detailed": 32080, "Ġantibiotic": 29883, "ĠKot": 21702, "297": 26561, "ĠMcMaster": 42284, "Ġdominating": 30651, "Ġtimeframe": 41352, "ĠScientific": 22060, "Ġmembr": 19890, "Ġ~/.": 39763, "Ġmash": 30407, "Ġhomelessness": 28822, "Ġpunct": 21025, "cade": 46395, "Ġfounded": 9393, "Clark": 43250, "ĠSta": 44919, "ãģ®å": 15474, "ĠIDE": 33497, "ĠManson": 41645, "Ġsponsors": 18073, "Ġinducing": 44561, "iuses": 44666, "Ġplanner": 42351, "Ġbombing": 13471, "Ġalright": 23036, "Ġnecessities": 41918, "erent": 9100, "mobi": 43549, "ĠMag": 2944, "ĠBorough": 48114, "ĠFo": 19434, "ĠDuring": 5856, "Ġended": 4444, "arers": 34231, "Ġfonts": 26806, "init": 15003, "MAL": 42126, "ĠCompanion": 30653, "Site": 29123, "limit": 32374, "Ġcensored": 43847, "ĠHond": 27040, "Pitt": 47627, "Ġhalting": 45588, "bah": 47041, "Afee": 44314, "icc": 44240, "Ġnont": 45930, "Ġpackaging": 16846, "Ġbumper": 32228, "gro": 27333, "ĠInventory": 35772, "Ġhip": 10359, "ZX": 40692, "Ġshells": 19679, "ĠActive": 14199, "ĠDr": 1583, "source": 10459, "Registered": 47473, "Ġmounts": 30790, "Ġscenic": 43251, "ĠYamaha": 45483, "Ġmanagers": 11663, "abolic": 29304, "Ġrecruited": 18774, "Ġsail": 14936, "Ġreversal": 27138, "uana": 5020, "Ġassociations": 15814, "ere": 567, "Ġideologies": 35871, "ĠAPIs": 23113, "Ġeject": 22189, "Ġusual": 6678, "ĠComputing": 38589, "FIX": 47084, "ĠLadies": 37401, "ĠRoss": 9847, "licts": 42267, "Ġmachine": 4572, "ĠSomali": 30886, "703": 36809, "ĠRPGs": 46697, "Ġsings": 33041, "Ġç¥ŀ": 47432, "ĠVern": 23092, "ĠCth": 34901, "men": 3653, "ĠCort": 18418, "aryl": 36822, "ĠRevised": 31492, "ĠSame": 16766, "ivic": 16482, "Ġbart": 30539, "Ġechoed": 22211, "Game": 8777, "uint": 28611, "Ġopting": 37529, "Ġrelinqu": 36610, "politics": 34127, "Ġtroll": 13278, "Ġtempting": 29850, "ĠIndividuals": 34884, "ĠIvory": 37499, "Ġswallow": 26633, "Ġobjections": 21954, "OC": 4503, "Ġcolonization": 40337, "ĠInstitute": 5136, "Starting": 22851, "ĠJeb": 24298, "etheus": 36916, "Ġsnakes": 26042, "ĠGained": 34775, "å¤©": 25465, "Ġremorse": 34081, "awn": 3832, "Documents": 38354, "ĠOkin": 41020, "ublic": 841, "Ġdegraded": 41604, "ĠUk": 5065, "uckle": 29687, "Ġbabies": 11903, "iot": 5151, "powers": 30132, "Ġimpuls": 30348, "ĠOrn": 49359, "Ġdishon": 32045, "Ġprofit": 7630, "ANY": 31827, "Ġverb": 15942, "ĠLate": 18319, "ĠAcid": 27066, "ĠInstruct": 20689, "ĠHindi": 43443, "Ġconditional": 26340, "HY": 42598, "igh": 394, "ĠPOL": 20634, "examination": 47779, "Ġcheers": 34550, "107": 15982, "ĠMesa": 26670, "owned": 11990, "chnology": 19587, "ľ": 250, "aggressive": 49639, "ĠMaver": 28870, "culation": 14902, "END": 10619, "Ġenrichment": 36513, "tymology": 43408, "ĠEA": 19814, "Ġslams": 45846, "ĠCoral": 41390, "Crit": 18559, "ĠNoir": 36961, "Ġblast": 11975, "ĠDoomsday": 45234, "Ġreviewed": 11765, "single": 29762, "Ġcongest": 22791, "Ġancest": 10790, "Exit": 30337, "ĠIDs": 32373, "ĠOsiris": 40925, "Ġ1905": 37166, "Ġcensus": 21649, "activity": 21797, "Ġframework": 9355, "ĠRivera": 31325, "ï¸ı": 37929, "Ġabout": 546, "ĠVest": 39034, "Ġ132": 21761, "790": 37750, "Ġsolitary": 25565, "icion": 47430, "Ġaggressive": 8361, "Ġrushes": 38596, "Ġquizz": 48258, "ĠGou": 46531, "Ġsurely": 10403, "ĠPale": 21706, "Ġnurs": 11051, "Ġlateral": 25653, "Ġclubhouse": 48018, "Left": 18819, "Ġsuperst": 23510, "assetsadobe": 41383, "olitical": 13781, "Ġnotation": 33274, "ĠMob": 16540, "Ġmarg": 6145, "!\".": 48220, "Ġmom": 1995, "UAL": 25620, "amera": 18144, "Cru": 27535, "ĠAHL": 35297, "ĠPack": 6400, "ĠOliv": 40019, "borgh": 49870, "chairs": 49655, "ĠCommodore": 48808, "Ġinvaded": 26466, "Ġsmoking": 9216, "iens": 10465, "ĠBoo": 21458, ",'\"": 16078, "ĠGear": 10740, "ĠVega": 30310, "Ġratt": 27263, "icol": 27045, "Ġscience": 3783, "commun": 10709, "antom": 11456, "ĠAntiqu": 47789, "olith": 21446, "Ġtravelled": 21650, "ĠBU": 20571, "ĠBund": 13319, "Ġformations": 30648, "ĠCustomers": 36707, "fashioned": 28776, "ĠColo": 41943, "ĠCal": 2199, "Ġseasonal": 21819, "ĠBasin": 32666, "Ġreserved": 10395, "imsy": 48295, "390": 25964, "Ġshel": 7497, "Ġbets": 29222, "Ġmsg": 31456, "aceae": 48319, "Ġcollaps": 10777, "Ġeverywhere": 8347, "Ġdeterioration": 38495, "Ġunve": 13581, "ĠRD": 31475, "ateurs": 45211, "Ġdemocracy": 7996, "Ġgoing": 1016, "ĠAsh": 7844, "Ġmorbid": 34813, "Ġvaccines": 18336, "AM": 2390, "ĠWeld": 45156, "ence": 594, "seller": 32932, "illet": 32512, "anga": 16484, "Ġwarheads": 50046, "quez": 22281, "ĠBUT": 21728, "ĠSole": 37965, "DER": 14418, "Ġhomophobia": 42583, "ĠCafe": 26965, "Ġoak": 26210, "ĠSad": 14668, "Ġconflicted": 46060, "Ġ1865": 47801, "Ġpixel": 17465, "Ġcling": 36331, "Ġlull": 42858, "Ġcherished": 41238, "modules": 18170, "ipple": 18793, "coded": 40976, "Ġvivo": 34714, "ĠOxford": 13643, "ĠMIL": 31515, "ĠShroud": 40246, "Ġ..............": 44912, "ĠHamas": 15767, "Ġnoting": 10820, "Ġperiods": 9574, "Ġenlight": 19128, "ĠPARK": 42358, "porter": 26634, "ĠBarkley": 45408, "arel": 20318, "Ġeldest": 34331, "ĠBurk": 37940, "Ġ254": 35360, "Ġbursting": 37493, "anned": 3577, "Ġturb": 14830, "ĠAUTH": 37195, "630": 30005, "Ġexercise": 5517, "ĠLoving": 39202, "ĠDjango": 37770, "cession": 43914, "Guide": 47889, "ĠComed": 37024, "Ġsmear": 35180, "ĠForrest": 38355, "ĠScotland": 8838, "Ġfirefighters": 22611, "ĠLLC": 11419, "Ġagencies": 5942, "Ġhelicopters": 23890, "Ġrecon": 8195, ",[": 17414, "Ġacid": 7408, "ĠRafael": 31918, "onomic": 40036, "Ġcops": 14073, ">]": 37981, "Ġ1980": 7169, "ctic": 11048, "Ġdifferences": 5400, "ĠCA": 7257, "vity": 21319, "Ġdel": 1619, "EVA": 27881, "ishes": 5614, "Ġextended": 7083, "ĠMain": 8774, "Ġâĺħ": 23883, "Ġappetite": 20788, "Ġreport": 989, "ĠHigher": 16038, "Ġofficially": 8720, "Ġshortage": 18772, "Ġresponded": 7082, "Ġmentions": 15802, "Ġlever": 17124, "Ġsynthes": 24983, "Ġheritage": 15012, "Ġingred": 7677, "ophysical": 41789, "441": 39710, "ĠEid": 31022, "ĠMercedes": 21279, "ĠESP": 9428, "Ġtofu": 40108, "Ġrepayment": 36411, "ĠTe": 1665, "ĠMormonism": 49342, "ricanes": 24881, "ĠMouse": 21839, "ĠExperts": 36095, "Line": 13949, ",,": 9832, "Ġskeletons": 25612, "commit": 41509, "Ġseamlessly": 33681, "ppe": 27768, "Ġblow": 6611, "Ġembodiment": 23168, "ĠChapters": 42448, "haust": 42456, "imaru": 49551, "default": 12286, "ĠDek": 44297, "construct": 41571, "Ġinjunction": 27439, "hate": 37035, "Ġpun": 4000, "Ġimpressions": 25885, "ĠMaduro": 33007, "Dust": 43767, "coin": 3630, "ermott": 46187, "ĠChristine": 26088, "Reader": 33634, "isal": 28456, "Ġnewsp": 6043, "umb": 2178, "ducers": 41213, "ĠCLIENT": 45148, "Ġportrait": 18560, "CAR": 20034, "FIL": 46700, "ĠControl": 6779, "Ġmt": 45079, "VERSION": 43717, "mails": 26165, "ĠHallow": 15400, "251": 28072, "Ġkeyboard": 10586, "Ġhumming": 41465, "Ġcharg": 2609, "connected": 15236, "Ġslump": 37758, "xd": 24954, "ocument": 7990, "ibly": 3193, "Ġstorage": 6143, "Ġwherein": 22881, "antes": 39781, "actic": 12009, "Ġtransitions": 27188, "cluded": 10341, "ĠLov": 39911, "ĠWords": 23087, "--": 438, "Pan": 15730, "ĠProp": 8772, "ĠFAM": 42129, "cha": 11693, "ĠBoise": 38830, "Ġhometown": 20994, "ĠAllan": 31908, "iv": 452, "Ġcolorful": 20239, "Ġ-->": 14610, "783": 50165, "Ġcommentator": 28823, "Ġfeder": 28062, "Ġexpr": 44052, "Ġrip": 18344, "ĠGears": 46680, "Ġpap": 20461, "itations": 20597, "Ġlegitimacy": 22726, "Wilson": 37349, "Ġwaving": 25849, "ĠSwe": 19372, "ĠHou": 33790, "raph": 1470, "ĠPSU": 48189, "Ġwhereabouts": 33035, "ĠYounger": 45174, "Ġcocktails": 34281, "ĠGang": 19228, "Ġpresent": 1944, "Pretty": 35700, "ĠJazeera": 32409, "clear": 20063, "fer": 2232, "Ġrenewed": 16434, "Ġmorph": 17488, "Kal": 41428, "Ġincorporating": 29927, "Ġplead": 30701, "ĠAdjusted": 45624, "Ġcomfortable": 6792, "2007": 12726, "Ġhub": 12575, "accompan": 41974, "asms": 34432, "zzy": 31570, "ĠSurf": 43771, "Ġoverlapping": 32997, "ĠGaz": 21347, "perhaps": 28998, "uve": 45177, "google": 13297, "ige": 10045, "dimension": 46156, "Create": 16447, "Those": 9627, "Ġlocality": 48036, "Ġfossils": 34066, "ĠSurrey": 38805, "Ġbehest": 49672, "Ġpropos": 4218, "rative": 13260, "ĠStrategies": 40996, "etary": 8527, "ĠNut": 11959, "Ġinert": 29824, "Ġasymm": 30372, "ouri": 10300, "Ġrefinement": 47517, "Ġcoil": 25661, "Ġregulators": 17199, "Pri": 34487, "Ġoutward": 23537, "ĠPam": 24497, "Ġstret": 5759, "ĠFortunately": 20525, "Ġanalogy": 23970, "ĠInstruction": 46486, "Ġcharity": 11016, "Ġparan": 23511, "ola": 5708, "Jason": 26497, "ĠValues": 27068, "Ġadherents": 46372, "cens": 42595, "Ãº": 21356, "ĠLocation": 13397, "Ġhurry": 23290, "Ġnozzle": 46031, "ĠFold": 39957, "ĠAMD": 10324, "ociated": 19293, "restling": 48839, "ggie": 23571, "Ġwithhold": 34224, "Ġaster": 18503, "gin": 1655, "adi": 9189, "Ġnoon": 19613, "Ġsurgeon": 23923, "ĠRedux": 30609, "Ġkids": 3988, "ĠDesk": 39246, "alos": 41823, "Ġregime": 7142, "Ġproletariat": 30444, "Ġinjuring": 34361, "ĠPreferred": 31278, "Ġvertically": 31677, "Ġspar": 37331, "Ġracists": 40681, "Ġwireless": 12521, "ĠLeft": 9578, "ĠClan": 22467, "Ġfunds": 5153, "ĠCam": 7298, "Ġgenital": 24678, "modern": 23922, "IFIC": 30643, "Ġsequence": 8379, "Ġought": 10783, "ĠâĹı": 48049, "ĠFormula": 19639, "Ġbecomes": 4329, "gener": 8612, "Ġadjud": 33719, "Press": 13800, "Cs": 32274, "resp": 4363, "Ġ165": 21409, "Ġnarrowed": 33214, "anon": 36902, "Ġawoken": 43532, "ĠXI": 30554, "proxy": 36436, "Ġfinan": 17240, "Ġpoint": 966, "Ġcryptographic": 40705, "ĠPassing": 46389, "Ġaffidavit": 23942, "Ġdairy": 17659, "Alice": 44484, "friend": 6726, "checked": 26752, "ewater": 21422, "Ġsegreg": 32301, "ĠURI": 43975, "Ġpromoted": 13722, "ĠGym": 31187, "Ġ100": 1802, "Ġnodding": 47583, "ĠLuna": 23694, "Ġmaize": 49235, "ĠRiyadh": 37236, "anye": 23495, "ĠHilton": 31248, "ĠKoh": 24754, "Ġpoisonous": 32199, "ĠJane": 12091, "Ġtaunt": 48146, "Ġwink": 41955, "ĠAW": 14356, "Ġsar": 29008, "annie": 42883, "Ġsatell": 8983, "ĠStatistical": 34931, "Ġdismantling": 41928, "Ġsteals": 28052, "ĠXV": 29922, "arta": 34202, "ĠFAT": 47200, "stan": 14192, "Ġgrace": 11542, "Ġwrists": 38163, "omnia": 37340, "Ġlabel": 6167, "Ġdesired": 10348, "ports": 3742, "Ġapproving": 33354, "imoto": 43354, "Latest": 39478, "Ġ1440": 49557, "ĠDisp": 36060, "ĠTrop": 25491, "Want": 19633, "ishly": 29735, "enough": 48229, "Ġdeported": 27434, "uces": 26873, "Fixed": 13715, "Ġknight": 22062, "ĠObjects": 35832, "ĠIndustry": 17420, "Ġcomplement": 16829, "Ġareas": 3006, "Ġbona": 41602, "ĠAST": 29273, "ĠCobra": 44305, "ĠGood": 4599, "official": 16841, "Ġbreaths": 45576, "Ġnood": 25099, "Ġcalculator": 28260, "Ġoily": 44560, "ĠMoe": 46488, "ĠBetsy": 45775, "outh": 1536, "ĠAki": 48663, "Ġrebuilding": 25448, "Ġchopping": 45274, "Ġne": 497, "Ġjunk": 18556, "ĠCertainly": 23631, "Ġchronic": 10726, "Ġhindered": 49186, "Ġrubber": 14239, "spread": 43639, "Ġunaware": 17261, "Ġsubter": 43148, "Ġadvises": 34138, "graph": 34960, "ĠSoup": 34011, "ĠDamon": 33572, "Ġgrat": 14586, "rider": 49449, "ĠInstitution": 29426, "ill": 359, "ico": 3713, "terson": 23192, "Ġunbearable": 45253, "resso": 33852, "Ġopportunities": 6443, "HI": 25374, "Ġrewarding": 23404, "Ġsignings": 42113, "Ġradical": 7702, "atech": 40340, "ĠCreep": 41682, "iotics": 18296, "ĠKendrick": 38643, "Ġdumped": 24105, "Ġinaugural": 26851, "Ġbullet": 10492, "ho": 8873, "ĠTribune": 17588, "Ġknow": 760, "Ġblockbuster": 32034, "ĠYin": 37201, "ĠHuff": 14721, "ĠCarrier": 30252, "ĠGuardians": 19752, "ĠMul": 17996, "Ġhumour": 31049, "ĠOCD": 43699, "Ġexploits": 27062, "ULT": 16724, "Ġhigh": 1029, "Ġceases": 42217, "ĠSenate": 3845, "ĠHowever": 2102, "Fe": 14304, "Ġ02": 7816, "ĠSilent": 25083, "ĠLaser": 23222, "zn": 47347, "kn": 15418, "Ġmanip": 7704, "ĠFil": 7066, "ĠCord": 21119, "Ġretard": 42964, "Ġgoat": 26917, "Ġsidelined": 39632, "659": 36445, "ĠBor": 12182, "385": 27203, "ĠGrind": 41379, "Ġhunt": 12601, "hemer": 39557, "Ġtel": 13632, "ĠGrass": 19062, "ĠRecall": 44536, "Ġlizard": 42406, "Ġhel": 932, "ctions": 2733, "Football": 37316, "ĠToro": 42952, "ĠMatthew": 9308, "Ġarchaic": 40435, "Ġefficiency": 9332, "Ġcontenders": 29467, "Ġkills": 12847, "599": 43452, "always": 33770, "Ġhosting": 13662, "Federal": 24099, "Ever": 23921, "ĠDems": 32123, "free": 5787, "ĠPride": 21735, "Rather": 27202, "Ġrevoke": 39041, "Ġrepository": 16099, "Ġvariety": 4996, "itches": 9249, "ĠSeoul": 22372, "gom": 19120, "Ġflavors": 17361, "Ġannouncements": 24009, "entials": 14817, "Ġupside": 17196, "Ã±o": 31329, "Ġaccordance": 10213, "Ġwedding": 10614, "Ġphr": 7607, "Ġmuscle": 8280, "ĠCt": 43166, "019": 30484, "ĠMPs": 14952, "Ġtragedies": 42546, "Ġnano": 38706, "Ġ1986": 12113, "utable": 18187, "ĠContains": 49850, "Pa": 28875, "Ġlinear": 14174, "OW": 3913, "ĠHelm": 28351, "ffic": 2108, "ĠHearts": 20592, "Ġoz": 15649, "Ġremedies": 29604, "udos": 42418, "Spr": 38454, "Ġtac": 26142, "ĠTraffic": 23624, "Ġsuperv": 29745, "Ġaccumulate": 29915, "Ġdepartments": 13346, "ĠPATH": 46490, "ĠOpinion": 29525, "Ġscare": 19437, "undo": 41204, "ĠChristie": 16929, "Ġfraudulent": 24627, "Ġirrational": 25086, "Ġlying": 9105, "Ġ1993": 9656, "Truth": 38782, "Ġfro": 8400, "ĠFloat": 48436, "Fig": 14989, "Ġtheat": 23776, "ĠHyundai": 47962, "ĠProductions": 25315, "Ġdigits": 19561, "Ġratios": 22423, "ĠPru": 35511, "Ġwatch": 2342, "Ġpension": 13553, "ĠSecond": 5498, "ĠTreaty": 21345, "Ġundue": 38826, "Ġ400": 7337, "Ġverbal": 17755, "Ġbunk": 36355, "ĠMount": 5628, "ĠTrey": 36085, "ĠPlug": 22689, "Ġsuc": 6522, "ĠDrum": 25331, "ãĤ»": 47271, "rage": 8394, "Ġstatewide": 23605, "Ġfoil": 25501, "Ġ285": 33015, "Ġmines": 18446, "Ġset": 900, "Ġturrets": 41104, "Ġworldwide": 8688, "opsy": 44522, "Ġinspecting": 49889, "Ġnerves": 25377, "idable": 23321, "Ġshorter": 12238, "rapnel": 48766, "Ġreassuring": 36450, "Ġservings": 43096, "Wan": 45681, "Ġcompetence": 31450, "ĠISPs": 28677, "Ġinflicted": 27010, "Ġsofter": 32359, "App": 4677, "Seven": 31334, "Ġexecutions": 30632, "andem": 30025, "ĠGender": 20247, "ĠRanking": 45407, "1000": 12825, "HAEL": 47452, "Ġmapped": 27661, "ENCE": 18310, "ĠSoldier": 20104, "Ġwat": 4383, "ĠPent": 9696, "ĠSaga": 19743, "itor": 2072, "Ġfestive": 43856, "Software": 25423, "TR": 5446, "Ġpurposes": 4959, "wx": 49345, "Ġhalted": 27771, "holders": 10476, "ĠRub": 6256, "Ġhit": 2277, "Ġjealous": 19354, "actions": 4658, "Ġaspects": 7612, "Ġbrief": 4506, "Ġcout": 42304, "Ġsummons": 28596, "ver": 332, "netflix": 36977, "Ġslideshow": 48828, "Ġoverc": 25676, "bestos": 40651, "Ġsuppress": 18175, "Ġrespectful": 25923, "ACH": 16219, "oe": 2577, "Ġlag": 19470, "ĠTwitter": 3009, "PDATED": 49316, "Ġweaken": 13813, "ĠWynne": 45867, "eworks": 19653, "untary": 26468, "Ġtakeover": 27011, "apes": 7916, "Ġregrett": 31649, "ibia": 41145, "Ġris": 6106, "ĠIowa": 9406, "Ġhonorary": 44358, "vin": 7114, "Ġdecreasing": 24030, "ĠQuake": 42901, "Ġdescending": 31491, "ĠCaller": 10244, "Ġrepresentative": 8852, "icans": 22398, "Ġ90": 4101, "Ġ152": 24848, "Ġmetropolitan": 27953, "Ġcommunion": 41419, "ĠButt": 36041, "Ġactivated": 13906, "Ġmobilize": 43494, "Ġworkplace": 15383, "Ġemancipation": 48936, "erker": 35779, "Ġmedieval": 19955, "Ġdarkness": 11854, "ĠPolitical": 14611, "Ġtempted": 26194, "fun": 12543, "Ġold": 1468, "isexual": 20863, "urch": 2575, "Ġmy": 616, "Ġply": 35960, "Ġdramatically": 12034, "Ġembedded": 14553, "Ġpaternal": 38082, "ADD": 29266, "ĠFG": 25503, "ĠFeed": 18272, "ĠTrack": 17762, "LCS": 29814, "ĠLuc": 7598, "Ġignorance": 17010, "Ġserv": 1113, "ucer": 48915, "Ġcloset": 21615, "Ġsugars": 34476, "Ġoverse": 9125, "Ġhorse": 8223, "Reply": 36875, "jp": 34523, "Ser": 7089, "Ġdie": 4656, "Ġbats": 19553, "Ġtemples": 27081, "Ġgrenade": 26168, "orkshire": 29918, "Ġrepeal": 14634, "Ġsweats": 39387, "ĠHalifax": 34438, "sensitive": 30176, "å¤§": 32014, "rev": 18218, "Ġoy": 35104, "Ġwasn": 2492, "ĠCosmic": 32011, "aris": 20066, "Ġbegan": 2540, "Ġdisturbances": 38622, "Ġ;;": 36792, "prison": 35156, "acia": 47431, "ĠWere": 15176, "Ġaccuse": 24456, "rex": 21510, "rome": 5998, "Ġplaylist": 33178, "ĠBelgium": 15664, "wings": 48819, "Ġannotation": 23025, "784": 37688, "Ġsat": 3332, "itz": 4224, "ĠMechanics": 47570, "ĠDEC": 27196, "ĠPartnership": 23270, "ĠDN": 45080, "ĠCannes": 50158, "Ġsolemn": 26322, "ĠSets": 21394, "Ġevolve": 18101, "ĠFantastic": 27948, "Ġridic": 8817, "lo": 5439, "ĠVent": 15716, "450": 17885, "Ġorientation": 12852, "Pir": 46772, "Ġindependents": 35576, "ĠWestern": 4885, "ĠProhibition": 43091, "agnetic": 25145, "ĠFairy": 17746, "ĠPete": 17542, "Ġgraz": 32703, "hower": 33539, "\\/\\/": 45422, "Ġinterrogated": 49473, "Ġselfies": 45406, "ĠPapua": 46117, "Ġincident": 4519, "774": 47582, "tical": 22869, "Document": 24941, "Ġcausation": 46850, "Ġcharacter": 2095, "Ġsprink": 27562, "Ġmk": 33480, "History": 18122, "Ġmosques": 32240, "erick": 41556, "Ġsustain": 8080, "istrates": 37909, "Ġsecure": 5713, "1920": 40454, "Ġsucceeds": 31137, "Ġglimps": 41226, "ĠOTHER": 25401, "Ġausterity": 22518, "Ġcleanup": 27425, "ĠMcLaren": 33017, "xy": 5431, "Ġmaniac": 45575, "CAN": 44565, "Ġwildfire": 44508, "=\"/": 35922, "Ġpeaceful": 12309, "Ġdiscoveries": 24362, "Ġpunishing": 28641, "Ġpowered": 13232, "EU": 19684, "Ġstaple": 25629, "Ġwarmth": 23125, "ĠArms": 18368, "Desktop": 36881, "Ġeagerly": 30130, "ĠShinzo": 43531, "Ġlongitudinal": 36211, "Ġunfinished": 34419, "ĠWillis": 32748, "Ġoccurs": 8833, "Ġcommitments": 19405, "ĠDevices": 29362, "ĠRosen": 15564, "ĠHopefully": 19996, "Ġsuppressing": 41895, "ibur": 38616, "ĠAccord": 46562, "Ġforces": 3386, "existing": 25687, "December": 20588, "ãĥ¯ãĥ³": 42983, "Ġrestoration": 19414, "Ġintrinsic": 28327, "ĠWorst": 33443, "ino": 2879, "arettes": 13890, "Ġinsisted": 11189, "ĠBec": 15780, "Ġlawsuits": 17785, "ĠSplash": 45275, "locked": 24162, "ĠStafford": 30596, "earth": 16442, "Ġtrusts": 31976, "Ġsubscribed": 45794, "Ġ83": 9698, "science": 16801, "gray": 44605, "ĠAbe": 22257, "Ġbarr": 29069, "Ġlia": 35388, "ienne": 37938, "Ġbegging": 26732, "ĠCorinthians": 39546, "Ġbleed": 30182, "Ġsoon": 2582, "Ġâĵĺ": 30684, "Ġnods": 34833, "Ġlucky": 9670, "ĠDull": 45401, "ĠLoren": 32035, "Ġplants": 6134, "Ġincap": 17505, "Iran": 23798, "Ġfleeting": 42738, "hma": 21720, "ĠApache": 24843, "Coll": 22667, "ĠSummit": 20014, "Grey": 49141, "GGGGGGGG": 40415, "braska": 17088, "Water": 19184, "installed": 37050, "73": 4790, "ĠIntermediate": 42540, "Ġstreams": 15190, "Ġsshd": 49249, "ĠTrader": 41956, "amph": 28474, "AUD": 48877, "ĠFallen": 28693, "Ġanywhere": 6609, "namese": 22678, "Ram": 33754, "station": 17529, "lynn": 12935, "Ġundergoing": 23247, "ating": 803, "Ġankle": 19847, "Ġbenchmark": 18335, "Ġrented": 26399, "PF": 42668, "ª": 103, "ceed": 2707, "Ġ398": 39260, "ĠIdlib": 33254, "Ġopener": 21996, "Although": 7003, "030": 39101, "Ġexploring": 13504, "Enable": 36695, "ĠSacred": 17380, "Ġpretend": 16614, "ptive": 21665, "ĠHur": 10077, "ĠFresno": 39927, "Ġple": 3339, "vell": 29333, "ĠArticle": 10172, "Ġcorrelations": 35811, "Ġdrunken": 26680, "Ġquota": 32539, "alys": 26266, "!]": 36463, "Ġlegal": 2742, "Break": 31737, "Ġskeptical": 17988, "ĠBrus": 15507, "ĠDolphin": 44576, "ĠCes": 42518, "ĠCostume": 40051, "Ġnewspapers": 14741, "donald": 40915, "hedral": 21962, "IV": 3824, "ĠFeatured": 38188, "ĠCzech": 16639, "ĠAirways": 40020, "ĠStephenson": 42838, "odor": 30530, "ĠMaintenance": 34857, "Ġsurviv": 10132, "Ġhundred": 3470, "ĠCharlie": 11526, "Ġmethamphetamine": 39278, "Ġbunny": 44915, "EEK": 33823, "bird": 16944, "Ġunequivocally": 47001, "//": 1003, "Depth": 48791, "Click": 8164, "Ġhars": 37883, "ĠPag": 31525, "Ġanarch": 14061, "Ġconven": 7292, "innon": 45067, "\\": 59, "appiness": 42661, "Ġfacets": 44497, "Ġ319": 40385, "Ġexh": 21847, "Ġverbs": 41781, "Ġminority": 9137, "Ġrequirements": 5359, "Ġgarment": 30594, "akh": 11322, "Ġprojectiles": 33281, "Ġgigantic": 24804, "!!\"": 37160, "mbudsman": 47012, "Ġinterpreter": 28846, "ecast": 43299, "yahoo": 40774, "Ġsynchronized": 47192, "Ġconsent": 8281, "Ġswift": 14622, "Ġhearty": 44277, "gerald": 26941, "cats": 24619, "eding": 8228, "Ø¯": 38843, "ameda": 49637, "ĠkWh": 49223, "Northern": 40495, "Ġallocated": 19171, "Ġantic": 47792, "ĠHUN": 41041, "Ġpt": 42975, "ĠSlightly": 49365, "went": 19963, "assic": 31635, "Letter": 45708, "Ġdri": 1454, "Ġimplanted": 40740, "occ": 13966, "Ġdigging": 18894, "sie": 44524, "Ġhappen": 1645, "ĠMID": 25269, "Ġclone": 17271, "Ġah": 29042, "ĠHolly": 7764, "ĠManning": 15281, "ãĥ¼ãĥ": 12045, "ĠVs": 31280, "ERN": 28778, "ĠAlison": 33629, "Ġpainting": 12036, "Ġsection": 2665, "eman": 8463, "Ġdisgusting": 23374, "009": 28694, "onto": 5957, "ĠAman": 42614, "ĠFrieza": 48080, "Ġperspective": 6650, "ĠNeurolog": 49115, "trained": 35311, "Ġdissu": 46066, "ĠLesbian": 43797, "Ġ388": 43550, "Ġaunt": 25949, "ĠKut": 40323, "ĠLighting": 43150, "ĠWednesday": 3583, "Ġ<<": 9959, "Ġlength": 4129, "ĠSprings": 18334, "ĠKick": 10279, "Ġdismantled": 44001, "Law": 16966, "Ġgirlfriend": 11077, "Rest": 19452, "Ġworrying": 18916, "Ġ122": 19409, "Ġstiffness": 49586, "ĠGuerrero": 49002, "Ġsalmon": 24535, "stream": 5532, "Ġuniverse": 6881, "ĠProduction": 19174, "ĠMelody": 38906, "Ġsituation": 3074, "Ġperfume": 40094, "ĠAround": 16824, "eger": 11893, "Ġhorny": 42014, "noticed": 31696, "Ġcensorship": 21185, "Ġbother": 11393, "ĠImm": 9543, "Ġrelics": 40970, "ĠKS": 34172, "Being": 18357, "ĠReagan": 12823, "htm": 19211, "ĠFat": 12301, "Ġ750": 19683, "Ġpowerful": 3665, "introdu": 27427, "ĠThames": 42521, "react": 45018, "Ġconflicts": 12333, "Ġturtle": 28699, "INK": 17248, "Ġcharisma": 45581, "Someone": 28211, "GET": 18851, "Ġbuddy": 24407, "ĠAmtrak": 49145, "ĠMason": 14737, "ĠAwareness": 36735, "ĠSlave": 38795, "ĠHann": 14353, "Ġinsults": 27819, "Ġconservation": 14903, "Ġjailed": 22159, "Ġpicking": 10868, "session": 29891, "TL": 14990, "Ġinsur": 49741, "Ġunbelievably": 48943, "ĠâĢķ": 21096, "Ġusage": 8748, "ĠAssassins": 48975, "watching": 50042, "ĠVeterans": 18950, "ĠHer": 2332, "Instead": 13193, "Ġsettlement": 9443, "179": 21738, "Ġchalk": 30860, "Jr": 50123, "Ġcover": 3002, "Ġng": 23370, "Ġrepublic": 17146, "eri": 33442, "ĠScha": 35756, "ĠClarks": 35931, "Ġalters": 40866, "Go": 5247, "Kate": 45087, "ĠAngels": 17654, "Ġdeepest": 25420, "Ġparser": 30751, "02": 2999, "gor": 7053, "Ġdisqualified": 40650, "requisites": 34075, "Ġflushed": 44869, "jj": 41098, "Ġfavorites": 18852, "Ġvolts": 46297, "ĠDress": 33611, "ÙĨ": 23338, "ĠGiles": 37538, "hu": 13415, "imilar": 49941, "ãĤ·": 15661, "Ġdisqual": 31901, "Ġextracted": 21242, "tt": 926, "ĠPioneer": 31437, "Little": 22253, "Ġlamented": 40176, "ĠNichols": 38403, "ĠMcCl": 23780, "ĠHes": 44773, "Ġ\"": 366, "Ġ94": 10048, "ĠNevada": 12087, "Ġignition": 37594, "Ġvehemently": 42327, "ĠGhana": 32825, "Ġmixed": 7668, "ump": 931, "Ġhusbands": 27742, "ĠTemperature": 34467, "OVA": 41576, "ĠReeves": 41533, "pox": 42557, "Ġsarc": 40638, "Ġser": 1055, "Kit": 20827, "Roberts": 45487, "ĠLD": 27178, "Ġusability": 42863, "ĠPersonnel": 41623, "Ã¶": 9101, "ĠCuriosity": 39736, "Ġtiles": 19867, "Ġjazz": 21274, "claw": 43143, "sin": 31369, "Ġcompanion": 15185, "uy": 4669, "inline": 45145, "Ġrabid": 49666, "Ġplaces": 4113, "ĠRolling": 21567, "tops": 35011, "hire": 10695, "ĠLoch": 45264, "LOG": 25294, "Ġnet": 2010, "Ġoccupations": 23308, "Ġblocking": 12013, "Ġhotter": 37546, "Ġdr": 1553, "ĠCrew": 17652, "!!": 3228, "Ġyoungster": 40944, "Ġfor": 329, "Ġsaga": 26784, "ĠMarsh": 9786, "ĠMaz": 21625, "Ġdoctrines": 32645, "Ġblocks": 7021, "ĠBan": 10274, "Ġwider": 10595, "Ġguitarist": 32705, "Japan": 16504, "ĠMcF": 38222, "ĠSubst": 24944, "Ġlauded": 42086, "Ġmillennials": 30418, "ĠFor": 1114, "ocide": 16207, "Ġphenomen": 7581, "Ġsnapped": 20821, "Ñĭ": 45035, "lu": 2290, "Ġs": 264, "Ġdictionary": 22155, "Ġuniquely": 24139, "Ġaggreg": 13262, "Number": 15057, "ĠNorwegian": 22158, "Ġfuzzy": 34669, "Dex": 48875, "Scott": 19040, "Ġridge": 32525, "ĠBarry": 14488, "Ġvolunte": 7105, "Ġrevelation": 16084, "olini": 43232, "inator": 20900, "Origin": 39688, "ĠShad": 46961, "ĠElliot": 30451, "riott": 43517, "ĠGRE": 19928, "ĠWHEN": 42099, "Ġimplements": 23986, "album": 40916, "Ġwhoever": 16958, "Ġroads": 9725, "major": 22478, "bet": 11181, "Ġchimpanzees": 47724, "ĠBalance": 22924, "ĠRising": 17658, "Ġtestified": 15463, "Ġabstinence": 40683, "Ġpublicity": 19403, "ĠDuck": 21867, "{": 90, "Ġaiming": 17272, "Ġspew": 38645, "ãĥ¼ãĥ«": 43353, "Ġmentor": 22387, "Ġwizard": 18731, "ordes": 35770, "Ġauthentic": 16425, "ĠPil": 12693, "afe": 8635, "ĠHR": 15172, "Ġnone": 4844, "Ġscrub": 27268, "Ġethn": 33961, "Ġmargins": 20241, "ourmet": 39094, "ĠYa": 26421, "jection": 29192, "Ġcut": 2005, "crow": 47114, "Video": 10798, "urned": 44866, "579": 41734, "itis": 11815, "ĠDeal": 15138, "562": 43918, "Ġhumanitarian": 15706, "aka": 8130, "122": 18376, "ãĥĲ": 29659, "leaning": 25909, "atem": 23900, "ĠKr": 13685, "aea": 44705, "Ġstart": 923, "Ġwildly": 20278, "Tro": 44095, "Ġtempor": 10042, "Ġrender": 8543, "ĠGarn": 30937, "pause": 32125, "ĠAngular": 28147, "Ġdism": 18099, "ĠBeta": 17993, "Ġcharities": 23980, "rek": 37818, "ĠTue": 30030, "Ġunreal": 22865, "ority": 29134, "slave": 36341, "omever": 49784, "Ġ376": 44622, "Ġproposal": 6961, "Ġletting": 9616, "Ve": 26979, "ĠNIC": 45593, "Ġadequately": 22668, "Ġflames": 16209, "});": 22133, "ifa": 19215, "Ġsubstitute": 15373, "ĠLob": 32684, "etric": 19482, "Ġranging": 12897, "FUN": 42296, "Ġresilient": 30738, "hd": 31298, "ĠCivil": 7511, "ision": 1166, "Ġmultip": 18540, "Ġfootsteps": 27146, "Ġbraces": 47241, "ars": 945, "Ġramps": 42097, "Ġ1965": 17672, "ĠFEMA": 43575, "Ġloan": 8063, "ĠSah": 22982, "Ġhonored": 21014, "Ġedition": 8313, "405": 26598, "Ġswapped": 37245, "Ġaccidents": 17390, "Ġparameters": 10007, "Ġfixtures": 34609, "Ġcontain": 3994, "ĠRights": 6923, "ĠShutterstock": 37356, "cross": 19692, "ĠYi": 26463, "Ġdropping": 12047, "Ġnegligible": 36480, "AW": 12298, "Ġattention": 3241, "Mount": 35452, "ĠBlast": 20641, "^{": 36796, "Ġdragged": 17901, "Ġnotified": 17600, "bish": 31795, "those": 25591, "ĠTrouble": 34179, "ĠOffense": 43824, "speak": 47350, "Ġordinance": 19784, "aredevil": 38281, "Ġrevisit": 32302, "Ġveterin": 33647, "itters": 45512, "ĠFalcons": 21026, "bash": 41757, "Ġsurpassed": 30612, "Ġplantation": 43206, "mo": 5908, "ĠPhysicians": 46206, "Ġfreezing": 20884, "Ġdragons": 20308, "Length": 24539, "ĠBW": 37869, "astics": 24232, "DW": 42955, "criptions": 24370, "of": 1659, "Ġape": 43835, "Nevertheless": 29011, "Ġphase": 7108, "Ġshifted": 14869, "Mouse": 39643, "February": 21816, "Ġreportedly": 7478, "Ġphilosophers": 24858, "iatrics": 36549, "Ġmeasurable": 40757, "Ġbrass": 20422, "opted": 45256, "Talk": 25685, "ĠÎĶ": 37455, "Ġobnoxious": 43283, "Ġpuls": 22271, "gpu": 46999, "\"}],\"": 42785, "................................": 8864, "end": 437, "Ġcomplexities": 42292, "made": 9727, "Ġnostalgia": 30889, "/_": 47835, "ĠSchool": 3961, "Ġsought": 7194, "Ġwindow": 4324, "Ġmini": 9927, "atio": 39485, "Ġevidenced": 30204, "Ġorganization": 4009, "clips": 31945, "Ġdominates": 38777, "osc": 17500, "Ġdrugs": 5010, "Ġdefer": 29135, "Ġwhining": 48978, "ĠContinued": 22168, "Ġscheme": 7791, "Batman": 37039, "582": 46044, "ĠOECD": 33802, "?)": 10091, "Ġiod": 41080, "quel": 31735, "iron": 1934, "Ġcortex": 20223, "ĠHodg": 37480, "andon": 5063, "*,": 25666, "Ġalias": 16144, "ĠListen": 20600, "Ġdescendant": 45923, "ij": 2926, "],\"": 17241, "Ġmushrooms": 23452, "eros": 27498, "ĠWhen": 1649, "ĠTutorial": 36361, "Ġrose": 8278, "Ġconvoluted": 47370, "izzy": 40593, "Ġkinda": 17855, "Pope": 46172, "Ġdepl": 38316, "Ġarresting": 33936, "ĠFaster": 38996, "ĠSH": 6006, "Ġhills": 18639, "Ġfragmentation": 42965, "Ġadvoc": 5271, "north": 43588, "sure": 19532, "Ġforever": 8097, "Ġchill": 20493, "ett": 3087, "Ġá": 28053, "ieves": 17974, "ĠKodi": 44129, "Ġturbines": 35658, "ĠGoldberg": 31225, "Ġlore": 24044, "turn": 15344, "ĠEW": 43255, "Ġoperatives": 27269, "ĠScriptures": 41622, "Contin": 17875, "pend": 37038, "ĠYorker": 27980, "Ġtweeted": 10830, "Ġrises": 16736, "powerful": 44548, "UTION": 35354, "ĠRevolutionary": 28105, "ĠFlore": 23347, "Ġgrun": 44397, "Ġrevenue": 6426, "wo": 21638, "Ġheavenly": 32271, "ĠJacksonville": 23194, "48": 2780, "ovan": 22590, "Ġeleg": 15361, "Ġexclusion": 19328, "Ġalcoholism": 46526, "which": 4758, "Ġdil": 11844, "ĠLiberals": 20162, "Ġexperiencing": 13456, "Ġsmiling": 16755, "Ġclergy": 26014, "close": 19836, "Ġinjected": 25077, "Ġcollects": 26609, "Ġathletics": 35691, "Ġpositive": 3967, "ĠIntervention": 43673, "five": 13261, "Rule": 31929, "std": 19282, "Ġamps": 45796, "Ġrepentance": 45893, "riger": 18096, "Ġdischarged": 26476, "Ġva": 46935, "ĠKo": 17634, "Ġhouse": 2156, "Ġsavvy": 32800, "Ġcellul": 47354, "Ġintimidating": 29301, "thing": 1197, "Ġdepressive": 36568, "Event": 9237, "ĠCalm": 38280, "Ġdmg": 41323, "ĠAbraham": 16660, "Ġrecommendations": 10763, "til": 47163, "Ġupheaval": 46907, "Ġthug": 47641, "ĠClick": 6914, "review": 19023, "Ġrepair": 9185, "C": 34, "ĠInnovation": 27724, "ĠOlympus": 42108, "icides": 16751, "Ġconsultation": 18103, "Ġcart": 6383, "ĠBullets": 39984, "ĠOptions": 18634, "Ġable": 1498, "Draw": 25302, "Ġinterviewer": 39877, "Status": 19580, "por": 1819, "ĠMarketable": 11966, "Ġaggregation": 46500, "izers": 11341, "Ġhi": 23105, "rt": 17034, "drive": 19472, "Ġreluct": 12869, "ather": 1032, "Ġbust": 13076, "Ġdiverse": 10084, "Ġdepart": 6313, "amily": 5993, "inges": 26792, "Ġschool": 1524, "ĠDortmund": 36888, "ĠHatt": 48509, "Ġsprang": 43908, "Ġterrible": 7818, "raised": 49309, "Ġlobbied": 40835, "Ġcoupling": 40204, "Ġass": 840, "Ġcompos": 18882, "Ġbid": 8406, "Ġbeside": 13970, "us": 385, "np": 37659, "Ġconsole": 8624, "ĠSophia": 39953, "ĠPhotoshop": 29153, "Stephen": 24920, "Ġdefences": 46942, "236": 24940, "Menu": 23381, "ĠFi": 23238, "Ġportals": 42604, "Sex": 23398, "Ġapologise": 39012, "Henry": 32476, "Appearances": 47569, "rodu": 2076, "Ġdiagnose": 37489, "Ġdesert": 10326, "Ġqueen": 16599, "æĪ¦": 36704, "Ġstreak": 15113, "ashi": 12144, "30": 1270, "ĠStrength": 14646, "Ġconsuming": 18587, "Lo": 27654, "Ġhabit": 7947, "Ġequilibrium": 29163, "Ġdistinguishing": 38607, "Ġ1500": 20007, "ĠDer": 9626, "Ġfullest": 40830, "ĠCr": 3864, "Ġcorresponding": 11188, "Ġinsecurity": 33837, "Ġrides": 17445, "idal": 11624, "Ġtransferred": 11172, "ĠDetroit": 8488, "ĠGuns": 20423, "ĠInfect": 26065, "ĠJournal": 4913, "landish": 45626, "values": 27160, "apps": 18211, "Ġvoting": 6709, "Ġcloser": 5699, "677": 40179, "ĠFilm": 13741, "iary": 8042, "Ġstreamed": 35377, "hang": 33255, "\"": 1, "ĠAdapter": 43721, "archment": 36767, "ĠHurricane": 16004, "Ġstyling": 35517, "Ġdrank": 24070, "igious": 10956, "ĠChe": 2580, "ĠStill": 7831, "raper": 38545, "ĠStuff": 27864, "197": 24991, "step": 9662, "Ġpush": 4574, "ri": 380, "Ġfailure": 5287, "ĠInstit": 37931, "Ġdidnt": 42547, "Looks": 41102, "Ġforegoing": 41660, "Ġevolved": 12572, "cffff": 31727, "fail": 32165, "Ġadministr": 6863, "Ġpurchaser": 39122, "iral": 21093, "63": 5066, "ĠPresident": 1992, "ĠMaritime": 45411, "Ġignor": 11477, "ĠAG": 13077, "Ġdelusions": 47456, "ient": 1153, "ĠJudd": 49554, "Ġsound": 2128, "ograms": 26836, "Stage": 29391, "PORT": 15490, "adle": 35166, "Ġexpenditures": 22895, "Ġvariation": 12291, "sw": 2032, "Ġsensit": 44752, "edom": 3836, "Ġlottery": 22098, "ĠPRE": 22814, "ĠDefense": 5947, "counter": 24588, "ĠSlide": 37651, "Lim": 19352, "ĠOscar": 15694, "ĠMer": 4638, "ĠSettlement": 45404, "Ġadm": 6178, "Ġstrangers": 18981, "ners": 2741, "Ġbroadcasts": 30423, "irie": 28191, "ĠGilbert": 24023, "Ġ610": 44300, "ĠAdjust": 20292, "ittal": 39979, "Ġresearched": 30066, "ĠHazard": 32224, "arsh": 5406, "Ġ1910": 31953, "imei": 45519, "Ñĥ": 35072, "ĠBM": 29944, "Scope": 43642, "Ġvaguely": 29627, "Ġoutper": 33597, "emon": 7966, "Ġ%%": 43313, "ĠCardiff": 34910, "Ġpaycheck": 37751, "Ġblu": 48208, "colored": 25717, "Ġperceived": 11067, "vel": 626, "Search": 18243, "Carl": 26886, "ĠWong": 27247, "Ã§": 16175, "Ġbad": 2089, "Ġuntouched": 36519, "ĠSQ": 49747, "category": 22872, "Ġendlessly": 33903, "Ġdehydration": 47751, "ĠDee": 29195, "=~=~": 33813, "ĠDown": 5588, "phal": 27451, "city": 19205, "Ġpoking": 39048, "Ġagenda": 8666, "Ġfourth": 5544, "Ġburning": 9482, "24": 1731, "ĠBright": 17558, "ĠPatriot": 26888, "Ġspoke": 5158, "Ġvert": 9421, "Ġpeas": 22589, "inders": 29700, "Ul": 47920, "ĠKorra": 38463, "Ġbowed": 35737, "Ġmargin": 10330, "ĠMaximum": 22246, "bda": 43444, "Ġprocessing": 7587, "bu": 11110, "ĠSingle": 14206, "Ġangry": 7954, "Ġdefaults": 26235, "usions": 15880, "ument": 1713, "ĠLunar": 31947, "Ġ335": 37144, "Ġmurdered": 12864, "++++++++++++++++": 44627, "Ġrightly": 22956, "ulic": 28575, "ãĤ¶": 48458, "ĠCreation": 21582, "Ġjudiciary": 30461, "Ġpillow": 28774, "Ġpegged": 48781, "Ġ201": 580, "\"(": 18109, "Ġunintentional": 48398, "enemy": 46970, "ĠPlayers": 13094, "Android": 25934, "Ġ185": 22855, "Ġi": 1312, "Ġamended": 11412, "ĠSecondly": 34276, "Ġsubstitutes": 44234, "Mars": 43725, "ĠCelebrity": 46289, "Ġbacked": 9763, "Already": 37447, "ÃĥÃĤÃĥÃĤÃĥÃĤÃĥÃĤÃĥÃĤÃĥÃĤÃĥÃĤÃĥÃĤ": 14827, "×ĳ": 49603, "inosaur": 21317, "Ġvaluation": 29115, "Ġstrengthened": 27324, "1978": 37950, "Ġimprove": 2987, "Ġcrit": 1955, "Ġ2018": 2864, "Ġwifi": 43121, "Ġclothing": 9528, "Ġinqu": 7949, "Happy": 25082, "Ġcreditors": 29714, "Ġelement": 5002, "Ġbombers": 26127, "Ġanguish": 41210, "ĠPlate": 23648, "Ġunconsciously": 48570, "ESSION": 47621, "ĠLair": 15067, "ĠWORLD": 29564, "Ġdefenders": 16355, "Ġcrypt": 8194, "ickson": 46381, "âĶĢâĶĢâĶĢâĶĢâĶĢâĶĢâĶĢâĶĢ": 28542, "ĠDue": 14444, "Ġvisa": 14552, "ĠFabric": 37759, "Ġcomma": 39650, "Ġlivest": 20532, "FF": 5777, "ĠSam": 3409, "ulatory": 21386, "Ġlow": 1877, "Ġwound": 11699, "Health": 18081, "nes": 2516, "Ġ1933": 26539, "Doctor": 37564, "ĠArtemis": 36137, "Ġdoing": 1804, "ipers": 29288, "Ġchooses": 19769, "ĠAgo": 48210, "Ġchasing": 20023, "?\"": 1701, "ĠBernardino": 35680, "Ġreplaced": 6928, "Ġtraditionally": 16083, "Ġspark": 9009, "Ġiterations": 34820, "Ġquality": 3081, "ĠPieces": 44676, "Ġascend": 34800, "Ġrod": 15299, "ĠReaction": 39912, "Ġbasil": 37792, "ĠKir": 7385, "ATS": 33586, "Ġexpelled": 27307, "ĠAram": 39026, "apult": 41387, "Ġrolled": 11686, "ĠAdvance": 25170, "struct": 7249, "ĠArabs": 22457, "Ġintakes": 42219, "Ġfastest": 14162, "Ġbowls": 34796, "In": 818, "ĠDomain": 20021, "Ġexped": 13604, "Ġannihilation": 49972, "Ġcr": 1067, "ĠLutheran": 43772, "ĠPowered": 45090, "Ġmayhem": 43744, "Ġ9000": 50138, "ĠGEAR": 43790, "WASHINGTON": 21793, "CI": 25690, "inning": 23062, "Ġadapting": 35135, "Ġgimm": 33135, "Ġsavings": 10653, "Ġvines": 44439, "Diamond": 47710, "Ġdelivering": 13630, "Ġliterary": 16716, "ĠÃ¾": 40265, "?!\"": 30823, "Ġarc": 10389, "ĠComparison": 34420, "verson": 49589, "Ġengineered": 23371, "ĠSands": 35359, "ĠExtend": 46228, "Ġmobilization": 46762, "ĠOPS": 40490, "Ġplacing": 12560, "Ġfishermen": 34955, "ry": 563, "execute": 41049, "method": 24396, "Luke": 30730, "Ġembold": 42221, "Ġallowing": 5086, "JSON": 40386, "[_": 29795, "ĠGreenwood": 42928, "Ġlic": 3476, "Ġsized": 19943, "ĠGoo": 43456, "\\.": 17405, "ĠSnapdragon": 39508, "Mobile": 17066, "focused": 18143, "Ġcolumn": 5721, "iovascular": 19381, "Ġ1931": 34625, "avascript": 16098, "Ġobj": 26181, "ĠMembers": 12688, "ĠTex": 3567, "Critical": 41000, "453": 36625, "destruct": 35678, "ĠUN": 4725, "Ġfigure": 3785, "lishing": 20020, "ÂłÂłÂł": 33477, "Ġbackups": 35872, "Ġforth": 6071, "ĠScarborough": 36126, "Ġqualifies": 37782, "ĠHealer": 47212, "ĠKand": 50224, "ĠExperience": 16386, "Ġbreat": 4882, "ï": 171, "472": 37856, "Ġfatal": 10800, "ĠSpend": 48293, "Ġmuddy": 39085, "ĠXP": 11961, "Ġeastern": 10183, "ĠFriday": 3217, "enh": 16550, "ĠBal": 8528, "ĠSanctuary": 27036, "Ġartic": 17251, "Ġclerks": 44115, "Except": 30313, "Ġphilosophical": 17580, "Ġbogus": 33418, "Ġegregious": 34372, "Vel": 46261, "Ġclos": 3542, "ĠPlayoff": 41325, "114": 16562, "Ġ342": 44341, "Ġopposing": 12330, "clipse": 17043, "Ġdevotion": 25808, "ighters": 6261, "chet": 20043, "ĠIU": 42564, "URR": 31302, "ĠWild": 6183, "Ġdisp": 4596, "jing": 49940, "Chelsea": 41053, "Ġcontro": 1246, "veland": 9731, "ĠStev": 42786, "ĠMaurice": 32839, "Ġexercising": 25352, "ĠBCC": 49577, "Ġexhibit": 15866, "Ġro": 686, "Ġwooden": 13510, "founded": 27060, "ĠBrit": 2490, "squ": 16485, "20": 1238, "holiday": 37689, "Ġflaming": 39518, "ĠQueensland": 21105, "ĠCentre": 9072, "Ġshelf": 18316, "Ġgiveaway": 39015, "ĠNightmare": 23951, "é¾įåĸļå£«": 33454, "ĠElephant": 42651, "ĠCabrera": 49858, "Ġcommissioned": 20462, "olkien": 31052, "Ġparasite": 38473, "Ġillicit": 24271, "nets": 45938, "ĠFib": 41566, "Ġmisguided": 30168, "Phase": 35645, "Ġ113": 17318, "kered": 28970, "ä½": 19526, "icester": 26382, "Ġran": 4966, "Ġpulls": 16194, "Ġrefer": 3522, "Ġpedestrians": 26735, "ĠKur": 18132, "Mit": 43339, "raits": 27554, "Ġelicit": 44055, "dx": 34350, "ĠArist": 23203, "eping": 7213, "Ġbikini": 45810, "Ġhelpful": 7613, "Recomm": 24898, "Ġpants": 12581, "package": 26495, "ĠSebastian": 26190, "Ġssh": 26678, "Ġsplash": 22870, "ĠEld": 19208, "elist": 46331, "Family": 24094, "ĠLH": 49730, "archives": 48814, "#$#$": 34206, "Ġcommun": 1316, "Ġwax": 20302, "umo": 43712, "ploma": 35728, "Ġdecad": 46734, "Ġdanced": 39480, "ĠBrotherhood": 17987, "ĠValue": 11052, "Ġgrowing": 3957, "Ġexplained": 4893, "Ġjuvenile": 21904, "Ġmis": 2984, "Ġcharred": 50045, "Ġdoctrine": 13115, "neum": 25668, "Ġeffort": 3626, "Ġmistakes": 10135, "me": 1326, "ĠExcel": 24134, "is": 271, "Ġsimple": 2829, "ĠWinter": 10633, "Ġdemons": 17708, "lected": 12609, "Liverpool": 44232, "ĠShack": 41149, "ĠReview": 6602, "ĠExperimental": 32286, "ĠOversight": 35968, "Via": 30754, "ĠLanguage": 15417, "ordering": 34555, "Ġtutorials": 27992, "Ġdeleg": 8570, "lean": 13087, "Ġcalendar": 11845, "ĠnaÃ¯ve": 41492, "equal": 40496, "Ġgad": 23793, "ĠGallagher": 38580, "Ġrectangle": 35991, "Ġ276": 38147, "ĠHug": 12905, "mint": 34289, "ĠRust": 17103, "Ġtrumpet": 40334, "ĠTyph": 27282, "Ġethical": 15028, "5000": 27641, "Ġtweaked": 38304, "CONT": 37815, "ĠJessie": 43425, "erenn": 31915, "ĠAnchorage": 50066, "plete": 6677, "OWN": 14165, "Ġzoom": 19792, "wy": 21768, "instance": 39098, "Ġ\"#": 25113, "Ġcast": 3350, "lic": 677, "ongh": 19757, "Ġrecip": 7450, "Ġx": 2124, "Union": 38176, "Travel": 33074, "hips": 5748, "Ġpistol": 16790, "ĠBeh": 10407, "cam": 20991, "Ġkinderg": 34469, "Ġcollectively": 21329, "Ġdeclaration": 14305, "Ġtracks": 8339, "ĠGonzalez": 24416, "ĠTreat": 11217, "ĠEven": 3412, "Ġ35": 3439, "Ġjoking": 29711, "Ġdope": 45654, "Ġterminated": 23083, "Ġforms": 5107, "ĠTavern": 32693, "guard": 14864, "279": 26050, "Ġdictatorship": 26457, "acket": 8317, "arians": 13517, "Ġpacif": 47617, "Ġmaneuver": 20186, "ĠLounge": 36333, "Ġautom": 3557, "Ġseparated": 11266, "ĠJess": 12707, "Ġpolitely": 34313, "UE": 8924, "Ġweekday": 28269, "ayers": 6962, "forces": 27087, "love": 23205, "âĢ¢âĢ¢âĢ¢âĢ¢": 39967, "Ġcontend": 24351, "ĠSessions": 15184, "graduate": 17680, "Ġnotes": 4710, "fred": 39193, "altern": 33645, "Ġfragments": 21441, "oots": 13880, "asso": 28372, "a": 64, "AMD": 28075, "Hist": 13749, "license": 43085, "Ġillumination": 40951, "Ġpolished": 23895, "('": 10786, "Ġrequisite": 37088, "Ġroof": 9753, "antasy": 34921, "Ġupset": 9247, "ĠHulk": 22860, "ĠEverything": 11391, "Ġhorrible": 12361, "ĠTrailer": 36923, "Ġ630": 44505, "ECH": 25994, "ĠTheir": 5334, "FACE": 49836, "Ġvacant": 23957, "evin": 6830, "held": 10217, "ify": 1958, "Ġdenomin": 31457, "Chapter": 14126, "Ġcredibility": 16532, "ĠWalt": 18935, "manship": 25428, "inkle": 19894, "Ġshred": 21163, "Ġspelling": 24993, "Ġprofitability": 37129, "Ġnem": 36945, "cl": 565, "ĠRuins": 40247, "Ġtorrent": 24458, "Ġaltar": 18890, "670": 43798, "Ġbalcony": 29780, "ĠAfrica": 5478, "ĠGoldstein": 45655, "Ġ334": 42819, "iquid": 6394, "files": 16624, "Ġcongratulations": 45108, "popular": 47568, "Ġdebug": 14257, "fee": 39071, "808": 28362, "fore": 754, "Ġappet": 16422, "Ġpopular": 2968, "ĠLon": 39295, "ĠTurnbull": 26445, "Ġintend": 14765, "Ġrevered": 37184, "ĠThus": 6660, "Hell": 28254, "Ġseason": 1622, "âĢ¦": 1399, "ovich": 18198, "British": 25631, "ĠGriffin": 16525, "Ġcolonies": 20848, "Ġdespair": 20234, "ĠEll": 7122, "ĠBard": 25654, "Ġinconsistencies": 40467, "Ġ---": 11420, "Ġactively": 10630, "ĠAnalytics": 30437, "ĠUSDA": 29986, "Ġworn": 12666, "Ġrevis": 22124, "Ġforeclosure": 41400, "Ġmim": 17007, "Ġdrift": 24260, "ĠMud": 32878, "wright": 29995, "aldo": 41476, "Ġcrossing": 12538, "Revolution": 50237, "ĠCLE": 30301, "Ġaddon": 48557, "Ġdodge": 24885, "Ġ169": 27191, "ĠPrem": 6929, "ĠSoutheast": 21199, "Ġconcent": 5280, "Ġsuggestions": 11776, "Ġdogged": 44443, "Ġrestrooms": 48537, "VEN": 28290, "ĠFaith": 16463, "ĠWAS": 21725, "augh": 1567, "Under": 9203, "Ġfail": 2038, "Ġwondered": 14028, "Ġguild": 19806, "Ġ1974": 16489, "Ġsoil": 9260, "Ġspecifics": 23514, "ĠChess": 25774, "Ġ00": 3571, "ĠHigh": 3334, "Ġallegedly": 7910, "Ġslee": 14368, "Ġshowed": 3751, "Bride": 47148, "ĠPAGE": 48488, "ĠNatasha": 41875, "phia": 8193, "Ġunforgettable": 45504, "Ġscratches": 37627, "NM": 32755, "Ġcig": 8594, "Ġbeetle": 45489, "Ġsets": 5621, "ĠCompetition": 27348, "Ġunlocks": 23872, "íķ": 47991, "Ġatrocities": 27817, "Ġprecincts": 47564, "College": 38951, "ĠJungle": 26411, "ĠSalman": 31995, "ahs": 39095, "pering": 21255, "Ġdimension": 15793, "ENA": 45510, "Ġscholar": 15606, "ĠMarketplace": 36703, "hare": 43466, "ĠDin": 23448, "CLUD": 39149, "ĠNeander": 38752, "ĠCov": 39751, "FW": 24160, "Ġelig": 7453, "Uk": 28425, "adra": 49456, "Ġrapper": 25670, "675": 42444, "Ġfrequently": 6777, "ĠBST": 44992, "Ġmeasurement": 15558, "mediate": 13857, "ĠMass": 5674, "food": 19425, "Ġisot": 31624, "Apart": 39182, "Ġcourier": 48934, "Ġstarved": 47224, "ãģ£": 33180, "Ġsewing": 35356, "ĠRandall": 29799, "Ġlose": 4425, "Ġfocused": 5670, "Ġsmile": 8212, "Ġqueens": 38771, "industrial": 31130, "bucks": 18999, "Ġbarking": 48961, "Ġchanges": 2458, "Ġconservatism": 33933, "ĠSTAR": 25424, "Ġfreel": 20643, "ĠBernie": 10477, "ĠRaf": 20824, "Ġorganisations": 16435, "Large": 21968, "Ġfreeze": 16611, "ĠMcD": 23394, "ĠYang": 10998, "ordable": 16819, "peak": 36729, "Ġ........": 20004, "immune": 38345, "Ġkindred": 46449, "ĠWays": 26658, "Ġ3": 513, "ographers": 34063, "ĠRiot": 24528, "Ġcommodity": 19464, "ĠGod": 1793, "Ġripped": 19551, "ĠDirectory": 27387, "eight": 26022, "Ġsession": 6246, "Ġofferings": 18369, "Ġ2006": 4793, "Ġobscure": 18611, "Yesterday": 28065, "ĠAlbion": 47995, "pathy": 16786, "ĠPortugal": 19101, "abin": 6014, "Ġsatisfying": 19201, "ĠLSD": 27483, "Ġ10000": 33028, "Ġboasting": 40776, "ategor": 47467, "Ġflourish": 31147, "Ġspans": 32727, "Ġphrase": 9546, "Ġdistributed": 9387, "Ġgenes": 10812, "ĠPsychiat": 26357, "Ġ$$": 32382, "TE": 9328, "Ġlax": 36919, "Ġappropri": 4148, "Turkish": 42872, "scroll": 48728, "onian": 27625, "Ġaltern": 3983, "ĠMara": 40124, "ĠWatson": 14959, "Ġchili": 32728, "ĠDaniels": 28162, "paralle": 37083, "Ġlarge": 1588, "ĠGER": 44186, "ĠFarming": 39831, "Ġspin": 7906, "steps": 20214, "Ġintermediate": 19898, "ĠSno": 42578, "ĠZelda": 22166, "Squ": 22266, "Ġmatured": 48491, "large": 11664, "ĠGrail": 41036, "Ġmust": 1276, "stract": 8709, "Ġrobbery": 18609, "Ġworsen": 47058, "rients": 18491, "Ġanalyzed": 15475, "Ġresemb": 11568, "ĠHall": 4789, "Ġrefusal": 17387, "Ġsuspending": 47499, "anging": 4924, "Ġ351": 44417, "Ga": 35389, "Ġgast": 21956, "Ġcommunications": 8062, "ĠRachel": 15984, "ı": 237, "Ġowl": 39610, "Ġscreenshots": 23322, "Ġflexibility": 13688, "td": 8671, "iom": 29005, "antz": 46269, "ĠWilson": 8127, "Ġreplay": 24788, "Ġ372": 46633, "Smart": 25610, "Ġcarries": 10732, "Ġjournals": 22790, "AN": 1565, "ĠSgt": 22925, "interrupted": 46037, "ĠVP": 23342, "Ġsprawling": 30190, "OUT": 12425, "Ġenz": 26365, "Ġacrylic": 43980, "ĠProperties": 24946, "NECT": 48842, "ãĤ¼": 30432, "seless": 10950, "Ġpatriotism": 36994, "ĠTian": 20834, "Ġonions": 24681, "ixon": 12305, "ĠVisitors": 44535, "ĠBerkeley": 14727, "abit": 29968, "Marco": 37179, "ĠCamel": 43281, "Ġgrizz": 46307, "Ġfails": 10143, "ĠBend": 26874, "801": 41531, "Ġfrustration": 14285, "ĠSaskatchewan": 31346, "Ġ1907": 41435, "ĠBarnett": 38174, "Ġstruggling": 9648, "DeliveryDate": 39749, "Constructed": 25207, "Ġvandal": 26271, "Ġgross": 10319, "kan": 27541, "Ali": 37893, "Could": 23722, "cus": 9042, "Ġredevelopment": 40751, "ĠHeb": 27030, "ĠLu": 6026, "Ġpilot": 8022, "Ġodor": 28192, "Ġinfinite": 15541, "Ġhurled": 43186, "Ġuncovered": 18838, "Ġscientifically": 32627, "storm": 12135, "egu": 15703, "abases": 18826, "Ġmile": 10591, "ĠScenes": 49525, "Ġborders": 11637, "ĠLand": 6379, "rish": 37518, "andals": 23819, "Ġdiscounted": 29686, "ancock": 37077, "Ġplunged": 31460, "Ġhumidity": 27716, "Ġundesirable": 38117, "Ġlegalize": 35605, "Ġshenanigans": 48949, "ĠAdelaide": 27139, "Ġdisobedience": 42366, "NSA": 47549, "ĠID": 4522, "Îµ": 30950, "Ġhypothes": 22079, "Ġfavorite": 4004, "Ġ1906": 40538, "ĠSHA": 25630, "Ġcac": 40428, "Italy": 45001, "ĠSTATES": 47023, "ORS": 20673, "campaign": 35012, "Ġhusband": 5229, "Ġcortical": 35001, "Ġfictitious": 46718, "Element": 20180, "adders": 45940, "ĠMarvel": 9923, "317": 34125, "ĠstrutConnector": 50009, "BM": 12261, "helm": 33485, "Ġfeedback": 7538, "ĠBristol": 25040, "Ġintolerance": 31545, "Ġcelebration": 14395, "heon": 37060, "Ġpossessing": 25566, "Ġbusy": 8179, "Ġdeton": 20413, "Ġkernel": 9720, "Ġcourt": 2184, "Ġjuices": 35919, "Carter": 49958, "jee": 34589, "mitted": 3291, "ĠInstallation": 32588, "provided": 41279, "Liquid": 41966, "ĠEarly": 12556, "weapons": 33999, "Australia": 27429, "Ġdiscovering": 21611, "More": 5167, "abyte": 37828, "Ġtraders": 21703, "ĠBangladesh": 19483, "ebook": 16497, "ĠERROR": 33854, "ĠConcert": 39220, "recogn": 26243, "quiet": 39624, "otation": 14221, "ĠLyn": 10350, "Jenn": 35994, "Factor": 41384, "Ġprops": 25744, "sy": 1837, "Fri": 30214, "uracy": 23843, "ĠCourt": 3078, "stro": 20661, "ĠLED": 12365, "ĠWired": 39721, "Stream": 12124, "Ġsuck": 10110, "Ġat": 379, "Ġhomers": 38818, "bard": 23024, "Ġclipping": 45013, "professional": 33163, "Ġlegally": 11119, "Ġassemblies": 37398, "Ġdetained": 14847, "BACK": 31098, "x": 87, "281": 30368, "Professor": 25031, "ĠRapt": 21301, "Ġnoticeably": 33752, "ĠSidd": 44487, "Ġplight": 29383, "TOR": 32961, "Ġaccrued": 43802, "95": 3865, "ED": 1961, "outine": 28399, "Ġreporting": 6447, "Ġrevive": 26046, "Ġevidently": 27450, "ĠKissinger": 39162, "Ġboxes": 10559, "Marginal": 36003, "Ġchains": 14659, "573": 48638, "workshop": 38067, "asis": 17765, "ĠTurtles": 44356, "ĠSanford": 42862, "Ġaperture": 32729, "ĠLivingston": 47717, "Ġ1952": 26352, "ĠImp": 9855, "uctions": 20847, "edi": 13740, "amina": 18891, "ĠEb": 12119, "Ġotherwise": 4306, "118": 16817, "Ġslogans": 31139, "alth": 1094, "Ġindividual": 1981, "Ġmunicipality": 27264, "ooks": 31085, "abbit": 14229, "Islam": 16991, "Ġclam": 30726, "ĠShotgun": 34198, "Ġwhisky": 39501, "âĸĴ": 40516, "ĠDamien": 46107, "DE": 7206, "Ġincurred": 23436, "mon": 2144, "Ġdissenting": 39527, "Ġ4090": 48908, "Ġflavorful": 47420, "Tom": 13787, "Ġreward": 6721, "Ġcontracts": 8592, "ĠKD": 43943, "ĠSet": 5345, "Ġcaucuses": 40100, "Opt": 27871, "iew": 769, "ĠThousands": 30405, "Ġincomprehensible": 47757, "ðĿ": 47728, "Ġquestioning": 14085, "owner": 18403, "Ġelection": 3071, "Ġimport": 1330, "tto": 33955, "Ġtilt": 26500, "ĠRegular": 23603, "Ġmonth": 1227, "ĠOral": 42222, "Ġoutlook": 19360, "lasting": 24810, "ĠPC": 4217, "ĠLeader": 10540, "Ġvicious": 17686, "ĠSadly": 27213, "Ġprejudice": 20226, "ĠBolshevik": 48789, "Ġpubs": 46972, "ĠLines": 26299, "ħĭ": 26534, "ĠCommando": 47150, "cture": 48715, "ãĥķãĤ©": 48457, "Ġcorrosion": 41677, "Ġhugging": 46292, "Ġarra": 44723, "ĠFlight": 13365, "Ġclimb": 12080, "1987": 27301, "Ġimaging": 19560, "icing": 6345, "Ġdisplaying": 19407, "Ġfoul": 15626, "ĠAMER": 32617, "ĠGods": 15391, "è¯": 46237, "ĠSociety": 7023, "Ġembraces": 37872, "Ġhttp": 2638, "Ġuseful": 4465, "Ġheightened": 25556, "icht": 30830, "\">": 5320, "places": 23625, "Ġwhis": 12563, "Ġfanbase": 49163, "ĠSymb": 41327, "Ġomn": 22284, "ena": 8107, "ĠRefer": 33973, "umption": 24098, "ĠKnow": 9365, "Ġjuveniles": 48660, "Mr": 5246, "Ġcord": 15050, "XX": 8051, "Ġreact": 6324, "Ġbilled": 33094, "cos": 6966, "Romney": 42184, "Ġbusiness": 1597, "1990": 19891, "Ġdrawback": 43585, "Ġill": 2801, "Ġblade": 11865, "levision": 5024, "ĠConvention": 11680, "ĠLives": 18965, "ĠVariable": 35748, "Ġtreatments": 13820, "ĠSwed": 7289, "alion": 19275, "Ġaspirin": 49550, "REP": 35316, "ĠHBO": 18804, "Ġfault": 8046, "Ġç": 13328, "ĠTome": 46403, "Ġembodies": 45370, "Ġroute": 6339, "Ġflee": 11562, "ĠAbbott": 16988, "ĠJuda": 24771, "asley": 30705, "Ġprogram": 1430, "Scient": 23010, "Ġfucked": 20654, "ĠAthen": 18001, "Ġrinse": 42145, "ethy": 33077, "Ġmidfielder": 18707, "ĠRez": 47753, "Ġappropriation": 34503, "OTHER": 31858, "lling": 2680, "'';": 44648, "ĠVolks": 29971, "ĠCannot": 26003, "ĠAmin": 39869, "ĠCamera": 20432, "Ġuptake": 35340, "ĠSat": 7031, "Ġgarg": 44671, "Ġconstruct": 5678, "Ġ2100": 38123, "Ġrecycle": 48914, "Ġperformer": 26960, "ĠAsgard": 41008, "UNCH": 47461, "SF": 20802, "Ġunderstanding": 4547, "knit": 47095, "Ġdisagreed": 27884, "environment": 38986, "inance": 14149, "Ġfelony": 14544, "ĠAmateur": 48576, "Ġharass": 7671, "Ġbusinessmen": 34643, "Ġsubjects": 7481, "Ġhappier": 23030, "POS": 37997, "Sol": 36949, "Bey": 21993, "Ġthat": 326, "Basic": 26416, "ĠKers": 49521, "Ġlimited": 3614, "Ġhostility": 23594, "Ġadversity": 42628, "Ġbucket": 19236, "Ġvile": 34942, "Ġ211": 28714, "efined": 18156, "Ġpiv": 16767, "Ġestablish": 4474, "ĠFinal": 8125, "Â½": 23141, "Ġpromoter": 32972, "Ġconstituted": 27276, "ĠSUN": 35329, "Ġdecisively": 47948, "ĠSim": 3184, "Ġinvestigator": 20725, "Ġelectrode": 46203, "Ġfilename": 29472, "Ġpirates": 27516, "Ġjog": 48342, "Ġouting": 32922, "Ġbeen": 587, "Ġgasped": 45236, "Ġcosting": 25894, "ĠMiko": 49071, "ĠSang": 30043, "ICES": 34444, "Ġtimeless": 36464, "bad": 14774, "ĠIgor": 46157, "ĠGim": 41123, "Ġdestroying": 13897, "ING": 2751, "reetings": 46648, "ĠAnime": 27812, "Ġvir": 5709, "parts": 42632, "sl": 6649, "ogenic": 15147, "Ġalleges": 24763, "ĠAnimation": 23535, "Ġsteel": 7771, "pound": 19568, "ĠJeffrey": 19627, "Ġinstaller": 29124, "ĠBerger": 33337, "Ġprofiling": 31582, "âĢ¦\"": 9962, "Ġloans": 10021, "School": 26130, "Ġprolific": 28892, "ĠCitiz": 12662, "margin": 36153, "ĠMaze": 33412, "Ġprohibit": 20767, "ĠSerpent": 30177, "Ġillegitimate": 41368, "Ġhypoc": 33240, "Ġadjusting": 22000, "Ġanomalies": 35907, "Ġsweet": 6029, "Lewis": 40330, "Ġwrapper": 29908, "Sam": 16305, "ĠHyper": 15079, "wra": 29988, "ĠSpark": 17732, "><": 6927, "asuring": 45925, "rica": 30997, "Ġdiagn": 6689, "Ġmicrobi": 24559, "ĠGetty": 7136, "Ġgrey": 13791, "attering": 16475, "aug": 7493, "ighed": 12570, "Async": 42367, "Ġknown": 1900, "Ġknitting": 41577, "Ġinquire": 38212, "Made": 24616, "âĦ¢": 8151, "ĠCMS": 40773, "Ġsecondly": 48550, "zzo": 47802, "ĠOlivia": 33911, "Previous": 21448, "Ġfriends": 2460, "ĠKEY": 35374, "Texture": 32742, "Ġfear": 3252, "Ġ176": 26937, "ĠRelations": 13883, "Ġrehab": 14321, "Ġsing": 1702, "GROUP": 46846, "Ġregarding": 5115, "Ġfrig": 36780, "Ġpartnership": 10413, "ĠSina": 28743, "Chel": 38292, "atches": 20981, "ĠPegasus": 48188, "ĠMining": 29269, "?'": 8348, "fledged": 45223, "Ġriots": 23766, "iable": 3379, "ERY": 19664, "Bone": 49580, "Ġscrutiny": 14521, "Ġ62": 8190, "oon": 2049, "Ġhull": 23644, "ĠRecover": 49107, "ĠRuin": 46085, "ĠCuomo": 32496, "Sky": 22308, "Ġfide": 43340, "Ġopinion": 4459, "CSS": 49155, "ĠSamurai": 23882, "Ġreson": 14309, "UTERS": 14974, "Ġboxed": 46069, "Hidden": 41691, "Ġinter": 987, "Ġcounteract": 47578, "Ġfollows": 5679, "Ġthreads": 14390, "Ġbikes": 16715, "ĠDirectX": 37017, "ophical": 49256, "aaaa": 24794, "Ġag": 556, "ito": 10094, "ĠCent": 1979, "Ġcareers": 16179, "Ġpropose": 18077, "External": 41506, "Ġski": 19984, "ĠColt": 37360, "ae": 3609, "profit": 9183, "Ġseek": 5380, "llo": 18798, "ĠSimon": 11288, "comment": 23893, "Ġblasts": 29895, "ame": 480, "Memory": 30871, "Mah": 40936, "Ġinsurgency": 35121, "ĠSOFTWARE": 47466, "Ġpapers": 9473, "Ġships": 7937, "ĠDT": 24311, "Ġwallets": 29608, "ITH": 10554, "Oak": 42426, "iframe": 39621, "ĠDeus": 37365, "ĠIGN": 28730, "displayText": 31536, "umbered": 26584, "MD": 12740, "ĠMy": 2011, "Ġprick": 41409, "Ġcommend": 35695, "Ġtbsp": 36367, "Ġtransfer": 4351, "ĠSep": 8621, "Ġcitiz": 3523, "Ġinjure": 42206, "Ġtalks": 6130, "sov": 47272, "ĠDrink": 32906, "ribute": 4163, "Ġnodd": 13177, "ĠVader": 27403, "ĠBold": 27059, "ĠGREAT": 37853, "absor": 46303, "ds": 9310, "ĠDoor": 19821, "DR": 7707, "Ġevaluated": 16726, "Ġtyres": 40498, "884": 40353, "Ġingenuity": 45207, "ĠCanaver": 46858, "Ġmystical": 29746, "ĠSide": 12075, "Ġmindful": 33798, "Ġsport": 6332, "Ġpills": 19521, "olded": 48959, "Ġprivileges": 18850, "Ġminions": 22811, "Ġunderstand": 1833, "Screenshot": 34204, "idency": 9147, "Ġembryos": 39966, "mist": 37980, "ĠPros": 27631, "Ġ(~": 31034, "ĠStatement": 21983, "ĠChicken": 16405, "Ġ),": 10612, "ĠConj": 37587, "Ġfax": 35168, "eas": 30412, ",...": 42303, "Ġsloppy": 35862, "young": 35465, "Ġdirecting": 21024, "ÃŃs": 41200, "imon": 20473, "Ġgorilla": 45314, "Ġterribly": 22121, "bia": 23339, "ĠPages": 28221, "iths": 47252, "complete": 20751, "ottesville": 23806, "This": 1212, "Ġcoach": 3985, "ĠSERV": 42887, "Ġrejecting": 26734, "Ġsanity": 34182, "loving": 33983, "eni": 43850, "owan": 45197, "oha": 28083, "Ġbi": 3182, "Brien": 20118, "Ġrods": 32858, "Ġ273": 38549, "Ġbass": 12702, "Ġpreserved": 17232, "ached": 2317, "ĠCharles": 7516, "ĠBras": 39452, "ĠTemper": 48125, "ĠTickets": 26878, "nesses": 47556, "ĠWidow": 39061, "Ġcandles": 32268, "aughters": 13441, "ÂłÂłÂłÂłÂłÂłÂłÂł": 17811, "Ġjumping": 14284, "theless": 9603, "ĠJacques": 35437, "dfx": 48753, "ĠStraight": 27680, "Lou": 24016, "umbles": 25329, "ĠTill": 17888, "husband": 48912, "Sm": 7556, "grades": 31177, "ĠCrush": 40104, "ĠIdle": 37130, "itte": 2654, "ĠDick": 11740, "Ġmater": 26910, "rupt": 3622, "ahar": 37325, "iles": 2915, "ĠSIL": 47551, "real": 5305, "Get": 3855, "They": 2990, "Ġtreaty": 15775, "TH": 4221, "Copy": 29881, "Ġmids": 49304, "illian": 37896, "Ġweekends": 21511, "Ġlandscape": 10747, "Ġcenturies": 10675, "Ġpresentations": 27709, "Ġmanually": 14500, "ruption": 6417, "Ġcommod": 13088, "ĠTrust": 9870, "ĠMcCarthy": 18751, "ĠPluto": 32217, "Ġghost": 10905, "wealth": 14298, "insula": 16495, "Ġwaters": 10150, "Ġuncertain": 8627, "Ġhike": 18390, "Weak": 44898, "Ġschemes": 16546, "Ġtotaled": 39398, "ĠTown": 8329, "Ġgrams": 16379, "Ġcheek": 19353, "ĠVanilla": 33897, "Seriously": 42338, "atton": 38680, "Ġorganisers": 43013, "Ġcurric": 18363, "Ġcamel": 41021, "242": 27877, "Ġcouples": 11886, "Ġroadway": 35852, "Ġimpossibility": 50097, "Ġfanatic": 43631, "vention": 4018, "foundation": 42526, "ĠTAMADRA": 41297, "ĠProvision": 43161, "Ġlil": 42280, "Ġobsessed": 21366, "tyard": 30308, "eaturing": 31347, "Ġmutant": 30118, "Ġhonestly": 12698, "ĠShaw": 18193, "annabin": 43655, "ĠCOURT": 46627, "Con": 3103, "Ġgob": 48484, "Ġ39": 5014, "comes": 8988, "Ġparagraphs": 23549, "Wil": 22327, "Fab": 43957, "otiation": 21236, "ĠAB": 9564, "ĠLena": 44131, "Ġvagina": 26150, "Socket": 39105, "Ġticks": 36066, "ĠDevon": 36889, "ombies": 12676, "Ġworld": 995, "Ġcompuls": 27954, "011": 28555, "Ġtexting": 36634, "Ġsegments": 17894, "Aw": 23155, "Ġdock": 23423, "Ġsnail": 47374, "Hundreds": 38150, "ĠMare": 36989, "apons": 13486, "Ġdecide": 5409, "Ġquiz": 38964, "ĠHydra": 31613, "Ġterrorism": 8649, "angelo": 46525, "Ġwa": 2082, "ĠFOR": 7473, "%%%%": 36917, "ĠIf": 1002, "Ġsteadily": 18434, "Ġfeeds": 21318, "ois": 10924, "enezuel": 12596, "Guard": 24502, "Ġreference": 4941, "ĠChapter": 7006, "Ġthrown": 8754, "Ġconsulted": 26889, "References": 19927, "fficiency": 35590, "Ġtravel": 3067, "lap": 37796, "Ġru": 7422, "morph": 24503, "ĠTokens": 47365, "ĠBraves": 29374, "arenthood": 17117, "ĠRutgers": 30595, "ĠEC": 13182, "assador": 10623, "Duration": 26054, "The": 464, "ured": 1522, "ensible": 27339, "ĠðŁ": 12520, "phot": 38611, "Ġlied": 19837, "Ġmerging": 35981, "Ġshutter": 31168, "onym": 5177, "cess": 919, "Ġdocks": 45906, "Ġgrounds": 9384, "rators": 18942, "Ġpalpable": 45061, "Ġdoubts": 17188, "ference": 4288, "Ġsatirical": 40557, "Ġbreaching": 46837, "ĠJurassic": 39577, "ĠRae": 41155, "Ġvastly": 22056, "ĠBaker": 14372, "Ġdecency": 39589, "ĠDivinity": 33170, "Ġ59": 7863, "Ġdomest": 26026, "Ġwaking": 23137, "Ġ71": 9166, "ĠIndonesian": 28259, "Ġvolatility": 30772, "Ġ1600": 26143, "ĠFever": 41951, "adden": 38014, "beh": 20709, "Ġsampling": 19232, "ĠÂ®": 38852, "Ġgraffiti": 28530, "ĠGodzilla": 38104, "ĠPerspective": 42051, "Ġwaiter": 46612, "Ġworshipped": 46204, "Ġlog": 2604, "Ġprescriptions": 34092, "ĠJune": 2795, "Ġadhere": 26325, "Ġsize": 2546, "ĠChip": 17869, "259": 25191, "Ġsalesman": 42414, "Ġrepositories": 38072, "ĠBucket": 48353, "Ġcrochet": 46149, "ĠSTORY": 46427, "lington": 17299, "Ġexpans": 20628, "Ġskepticism": 25858, "ĠShuttle": 35143, "ield": 1164, "ĠJon": 5966, "ĠMikhail": 42040, "vid": 16921, "Ġl": 300, "Ġbankruptcy": 17235, "etc": 14784, "tap": 44335, "Cra": 33800, ".\")": 19570, "gg": 1130, "ĠDud": 30673, "Ġvampires": 35299, "arbon": 42084, "Jack": 14295, "ĠSeed": 23262, "Ġcommunism": 27770, "isan": 9057, "ĠOsw": 30317, "ĠSponge": 42681, "Ġborder": 4865, "Ġsurvivors": 13644, "ĠRosenberg": 40827, "Ġstint": 22966, "linked": 25614, "Ġfrozen": 12912, "izon": 8637, "ĠKu": 12554, "ĠTo": 1675, "Ġdancer": 38619, "Ġintric": 22588, "Ġut": 3384, "Ġblueprint": 30881, "Ġ2050": 32215, "CS": 7902, "Ġprojectile": 26489, "Ġoppression": 18345, "Damn": 43343, "ĠStri": 26137, "Ġsensory": 23326, "Ġcowork": 30521, "Attempt": 37177, "herty": 29029, "Ġansw": 2590, "Ġstrokes": 29483, "jc": 48055, "089": 49352, "Ġminimum": 5288, "ĠKennedy": 10401, "ĠHutchinson": 43792, "Ġunbelievable": 24479, "018": 29159, "pdf": 12315, "ĠRams": 16077, "Ġcarving": 39510, "WI": 36326, "olute": 3552, "ĠXperia": 41710, "ĠOrd": 14230, "ĠHeath": 25846, "Ġrodent": 50074, "300": 6200, "Ġusername": 20579, "egal": 39839, "Ġsneakers": 42649, "Ġraised": 4376, "Ġunequiv": 33923, "Ġproudly": 23017, "Ġwrite": 3551, "olerance": 37668, "ĠWindows": 3964, "ĠCe": 20101, "ĠFitzpatrick": 44271, "Ġnamesake": 49829, "illa": 5049, "ĠSas": 23771, "Rush": 49942, "lems": 46367, "ĠSail": 27783, "agos": 48215, "FINEST": 40236, "Ġarchives": 22415, "ĠOPEN": 38303, "cffffcc": 31957, "asks": 6791, "Ġemoji": 44805, "itimate": 30233, "Ġhistorically": 15074, "Ġcues": 25288, "Ġdressing": 18544, "route": 38629, "ĠBleach": 48469, "Ġvot": 1993, "ĠMr": 1770, "nar": 23955, "ĠAlloy": 34971, "Ġprotagonists": 39558, "bleacher": 47975, "Ġhorm": 12241, "ĠVikings": 16420, "ĠRebellion": 34848, "Ġstray": 28583, "ĠBinary": 45755, "Ġridiculed": 47263, "Ġdecision": 2551, "Ġcriticised": 23894, "ĠHammer": 18278, "Sand": 18471, "hed": 704, "ĠEach": 5501, "Ġgl": 1278, "Ġshed": 14999, "Ġprisoners": 10577, "Ġemploys": 24803, "Ġ=>": 5218, "Ġaura": 22491, "ĠRestaurant": 26078, "Does": 13921, "ĠUSSR": 28905, "translation": 41519, "IN": 1268, "Ġpretty": 2495, "âĺ": 24583, "Ġendure": 21178, "Ġstarring": 20495, "VAL": 23428, "Ġdice": 17963, "iations": 40356, "Ġchar": 1149, "Ġpopulations": 9684, "SHIP": 49423, "marriage": 45394, "ethyl": 21610, "Ġ->": 4613, "Ġnail": 17864, "Ġparties": 4671, "Ġinterconnected": 40582, "Ġheresy": 47763, "owe": 47097, "ĠOwl": 37007, "Ġetc": 3503, "Ġfencing": 39244, "ĠFrenchman": 46819, "ropolis": 25986, "uliffe": 45228, "Quotes": 23138, "Ġvulner": 6222, "ĠLaunch": 21225, "ulhu": 36828, "ĠConnecticut": 14493, "ind": 521, "Ġperverse": 43060, "89": 4531, "mop": 35244, "assuming": 32935, "ĠClerk": 39905, "ites": 2737, "Ġcritiques": 44329, "ĠGallup": 29183, "Ġconveyed": 33348, "Ġ299": 31011, "Attempts": 48452, "Ġpedest": 14238, "Ġcharacters": 3435, "ĠAircraft": 30767, "Georg": 33428, "asing": 2313, "Ġoutset": 30761, "MS": 5653, "lime": 27299, "ID": 2389, "ĠScorp": 28097, "Ġproceeding": 18788, "csv": 40664, "aj": 1228, "reements": 28919, "emption": 11221, "ĠAndrew": 6858, "ĠSEM": 48603, "ĠPole": 29385, "Ġingestion": 38382, "ĠAppendix": 30378, "Ġproperly": 6105, "Address": 20231, "io": 952, "031": 43637, "ptr": 20692, "Conf": 18546, "ĠDynam": 14970, "ĠSabbath": 38402, "ĠStealth": 23293, "Ġwages": 9400, "ose": 577, "ĠTreasury": 13419, "ĠSync": 35908, "Media": 13152, "Ġinstrumental": 21543, "comm": 9503, "Ġunbeaten": 48798, "ended": 1631, "ĠGaul": 43540, "Ġtrivia": 44782, "ĠProgramming": 30297, "Ġbu": 809, "Ġdownside": 25320, "jet": 31173, "ciation": 17269, "Ġconject": 37262, "ied": 798, "Ġastonished": 40962, "Ġlens": 10317, "Ġundeniable": 36332, "Ġrankings": 16905, "Ġ(Â£": 23068, "Ġcolder": 38427, "Ġballoon": 21190, "match": 15699, "ĠExpl": 5905, "é£": 45617, "ĠPhilip": 14576, "ĠMÃ¼": 40790, "Ġswelling": 29844, "Ġstyled": 45552, "gy": 1360, "bane": 20235, "ĠUnlimited": 26774, "Ġcompe": 9981, "127": 16799, "Ġtropes": 43275, "atlantic": 43342, "ĠYorkers": 38244, "ĠAfric": 3295, "Ġcontracted": 23407, "Ġassistants": 29488, "._": 13557, "nick": 17172, "ĠFriendly": 38683, "Ġaffairs": 9674, "wrote": 42910, "Ġlouder": 27089, "ĠIGF": 46757, "ĠTax": 9241, "Ġclosure": 16512, "xi": 29992, "scene": 29734, "Ġrun": 1057, "Ġbasin": 34164, "ĠBuffalo": 14905, "Ġbelieved": 4762, "Ġbarriers": 14725, "Character": 27275, "Ġcrus": 25164, "Ġget": 651, "Ġreform": 4975, "ĠVictim": 38901, "Ġbanning": 19479, "ĠCrit": 10056, "ĠGrid": 24846, "Ġsmiled": 13541, "Ġinternet": 5230, "Ġobvious": 3489, "Ġtorch": 28034, "rel": 2411, "ĠPink": 14657, "Ġconfident": 6563, "Ġ206": 27253, "Ġsummarize": 35743, "ĠDetails": 14890, "parse": 29572, "ĠGive": 13786, "onduct": 12920, "Ġ780": 41287, "Ġhonesty": 24345, "Ġentries": 12784, "Shadow": 27447, "ĠTek": 33516, "Ġdues": 40789, "ĠDevelopers": 34152, "Ġround": 2835, "Correction": 43267, "Ġactresses": 49798, "LinkedIn": 40574, "Ġtet": 28408, "âĢ¦âĢ¦âĢ¦âĢ¦âĢ¦âĢ¦âĢ¦âĢ¦": 29146, "Ġtimed": 28805, "jad": 38442, "Ġmeats": 32219, "Hey": 10814, "INTON": 46812, "igible": 26032, "sun": 19155, "estern": 3330, "ifact": 29660, "ĠGregory": 20653, "EA": 16412, "Ġcompass": 31855, "ĠDominican": 32022, "ĠAlter": 32770, "imates": 26748, "Ġ560": 38089, ">:": 31175, "itaire": 26627, "Ġoverrun": 33713, "Ġhey": 17207, "ĠHappiness": 38456, "Ġ443": 40384, "Ġextracting": 37895, "Ġ1928": 35768, "HUD": 28410, "Ġcortisol": 41547, "015": 25150, "Ġ154": 24235, "ĠHelpful": 21656, "ĠNK": 46465, "ĠVancouver": 10930, "Training": 44357, "Ġare": 389, "Ġvehicles": 5672, "izations": 4582, "lahoma": 9802, "Ġoptimal": 16586, "ĠUni": 43376, "Ġstrands": 36593, "ĠSpain": 8602, "Ġburied": 11694, "ĠAla": 42682, "Ġrs": 44608, "ĠNegative": 36183, "Smith": 17919, "Ġprized": 37768, "Ġvim": 43907, "Ġquaint": 50127, "ãģ®ç": 17683, "ĠRicky": 31668, "Ġdubious": 25292, "ĠSkies": 39102, "Min": 9452, "chrome": 46659, "Ġfascist": 28342, "Ġdivest": 41905, "Ġvacations": 48695, "ĠXiao": 28249, "Ġcareful": 8161, "purpose": 29983, "Ġinconven": 20488, "Ġneedles": 25209, "ortium": 25182, "ĠPunk": 32592, "Ġlift": 10303, "Ġsplendid": 37196, "Ġincapac": 38533, "ĠMLA": 43265, "Ġwasteful": 45393, "ĠVeget": 23892, "oss": 793, "Audio": 21206, "Sound": 21369, "Ġes": 1658, "Stra": 41347, "gyn": 40183, "pillar": 41643, "ĠFnatic": 44704, "953": 49649, "UFC": 44534, "icated": 3474, "Ġge": 4903, "Ġapartheid": 38264, "Ġcamp": 1413, "anical": 36684, "479": 31714, "ĠBrist": 23072, "Ġselected": 6163, "ĠTraff": 31203, "Sah": 32194, "Ġinterviews": 9299, "ĠKessler": 46474, "PLAY": 31519, "ĠYorkshire": 31157, "Trust": 33814, "ĠBird": 14506, "Ġsmallest": 18197, "ocker": 12721, "Tw": 5080, "Ġcold": 4692, "ĠWestminster": 20353, "recy": 20568, "ebus": 33209, "ĠImmunity": 46824, "445": 43489, "Ġcampaigned": 32853, "HE": 13909, "Ġaction": 2223, "Ġintensified": 32413, "337": 31496, "Ġinsurer": 38735, "typically": 48126, "08": 2919, "Impro": 23028, "Ġhelper": 31904, "Ġnut": 6701, "ĠAffect": 36931, "Ġstill": 991, "isson": 30927, "ĠCreated": 15622, "elman": 32370, "Ġbasic": 4096, "Ġspons": 7180, "ĠMember": 10239, "ensional": 37176, "Ġenthusiastically": 42045, "Ġdiscriminate": 28433, "ĠBeef": 35309, "abet": 8380, "Ġappre": 5208, "isations": 38189, "ĠPanama": 23519, "57": 3553, "itable": 4674, "Ire": 48505, "Ġstorylines": 44880, "ĠComment": 18957, "Ġseam": 15787, "ĠStru": 34887, "Ġcountless": 12925, "Ġdelet": 28128, "PLIED": 49094, "tab": 8658, "KO": 22328, "Ġboat": 8848, "Ġtot": 2006, "obin": 38954, "Ġbending": 30808, "over": 2502, "inda": 22261, "ĠMontana": 18311, "Ġerroneous": 35366, "77": 3324, "ĠDifferences": 41937, "ĠExhibit": 35880, "Ġautomatic": 11353, "Questions": 35741, "ike": 522, "ĠMuslim": 3765, "Ġsucceed": 6758, "Ġtrope": 32463, "ĠShark": 28616, "washer": 45146, "ĠMeaning": 30563, ")/": 20679, "Ġfost": 26546, "Ġsped": 40424, "Ġbumped": 38034, "ĠKamp": 45327, "Ġdegradation": 27486, "ĠPom": 25505, "istical": 19929, "Ġinspection": 15210, "backs": 10146, "ee": 1453, "Ġlifted": 13663, "ĠShakespeare": 22197, "hibit": 26964, "Ġhampered": 42629, "Ġmilliseconds": 38694, "Ġpostage": 48552, "ĠNew": 968, "Ġwaved": 26834, "ĠLincoln": 12406, "blog": 14036, "Ġrescuing": 48329, "Ġresin": 36536, "Ġclerics": 47964, "Leave": 35087, "Ġdrawbacks": 42763, "Ġshape": 5485, "Ġanthropology": 45424, "Ġimitate": 44638, "style": 7635, "ĠYoshi": 38936, "Ġnormally": 7685, "igon": 37107, "ĠCredit": 10504, "Ġrepl": 2186, "olation": 21417, "Ġtick": 4378, "Ġregimes": 25879, "ĠSweet": 15335, "Ġnoises": 26782, "attle": 1999, "ĠPastebin": 29582, "Ġsymmetry": 40686, "Ġrigid": 20831, "borough": 17913, "Ġtermination": 19883, "ML": 5805, "ionic": 26523, "ĠUnless": 17486, "ĠEbola": 15825, "Council": 40940, "division": 21426, "ĠBella": 39304, "Ġ1800": 21431, "ĠNoticed": 15362, "Ġsa": 473, "ĠIngram": 44211, "Ġanatomy": 33449, "Ġglyc": 40232, "Ê": 134, "Ġsouthwestern": 46065, "ĠNathan": 18106, "OSH": 45704, "Ġcongestion": 28014, "Ġ1998": 7795, "Ġstewards": 38030, "Ġkeen": 13795, "ĠScient": 9898, "zag": 50183, "okin": 36749, "ĠRutherford": 49767, "irling": 24297, "Ġmemo": 16155, "Ġstate": 1181, "ĠShared": 39403, "Ġinfiltrate": 42111, "ramid": 20255, "Ġcurves": 23759, "-.": 34507, "ĠShall": 38451, "Ġyelled": 22760, "Ġevid": 25568, ",)": 35751, "Baby": 36534, "species": 35448, "Ġomit": 42848, "ori": 10145, "ĠDestroy": 19448, "Ġchord": 25594, "ĠRCMP": 28797, "Ġsweets": 42402, "ripp": 14602, "Version": 14815, "ĠGaza": 11010, "Ġrequiring": 10616, "000": 830, "middle": 27171, "ophy": 16982, "ĠFont": 24060, "vas": 11017, "Ġstruck": 7425, "Ġelectors": 39259, "ĠFerdinand": 44312, "Isa": 39443, "hots": 17398, "yrights": 49158, "Ġ379": 45937, "ĠHELL": 47899, "otle": 23556, "Ġrevocation": 47275, "Ġpace": 8761, "ĠLieberman": 46524, "amines": 41047, "ĠMorocco": 29638, "plus": 9541, "ĠFires": 47702, "ĠEVER": 20498, "ĠJehovah": 33205, "Ġrigs": 45932, "ĠConsult": 21651, "uning": 46493, "Ġgoalkeeper": 26318, "Ġwarned": 7728, "ĠUFOs": 49863, "Ġunden": 26712, "Ġdeval": 35966, "fy": 24928, "Ġmadness": 23208, "NA": 4535, "Ġillustrated": 18542, "ĠEc": 14003, "ventional": 20405, "ĠAct": 2191, "ĠDir": 36202, "ĠPok": 8175, "aven": 4005, "Ġmisunderstand": 39653, "ĠHust": 42941, "ĠMach": 7080, "ĠUl": 16322, "Ġphotography": 16223, "Ġcastles": 49203, "Ġexhibitions": 48130, "Ġbitterly": 40608, "Ġlatency": 24812, "ĠUpton": 47755, "Ġcommenced": 32400, "ĠJudging": 47024, "overy": 6560, "ĠCock": 23769, "Blu": 38676, "Ġpitching": 21088, "ĠWhole": 23431, "ĠDecoder": 34580, "Ġincarn": 22201, "Ġtoe": 21189, "Ġinfusion": 35547, "PRESS": 32761, "Ġstocking": 49774, "Ġrevolutionary": 12253, "Ġprobation": 19660, "Ġdesktop": 11364, "pop": 12924, "ĠGlenn": 17551, "ĠCable": 20249, "ilation": 10520, "Ġguru": 35730, "Ġbol": 11572, "Ġenvelope": 22878, "GRE": 28934, "reth": 40978, "Ġtaste": 6938, "ĠChar": 3178, "Ġcross": 3272, "232": 24339, "ĠChaff": 46279, "killers": 43492, "Ġmissile": 10105, "[[": 30109, "ert": 861, "archive": 17474, "Ġbel": 894, "Ġplayground": 24817, "Ġworth": 2861, "Ġpadd": 14098, "ansom": 22011, "Ġbarracks": 37658, "ĠBomber": 38474, "Ġinterstellar": 48851, "Ġcompetitors": 13861, "Ġdispro": 15493, "aine": 5718, "theme": 43810, "Ġlink": 2792, "Ġadviser": 12534, "ĠAbbas": 28354, "Ġfundamental": 7531, "Ġ1997": 8309, "etsu": 30470, "Fax": 46512, "osed": 1335, "Ġcoolest": 38889, "Ġslashed": 34930, "ĠReynolds": 21995, "ĠCBC": 20244, "Ġrings": 13917, "Ġ'.": 45302, "Ġwaitress": 44511, "ĠImpro": 12205, "ĠSpider": 12648, "Ġemblem": 32094, "IG": 3528, "Ġreject": 4968, "Ġexit": 8420, "ĠBehavioral": 38483, "ABLE": 17534, "Ġinsurance": 5096, "Ġpresidency": 12112, "ĠKenobi": 46217, "Ġbudget": 4466, "Ġunborn": 36172, "lux": 22564, "ĠIoT": 38488, "kies": 43724, "Ġwake": 7765, "ĠHand": 7157, "month": 8424, "committee": 26799, "allo": 49457, "Ġdraws": 14293, "057": 43526, "CONCLUS": 47542, "cel": 5276, "Ġenigmatic": 48584, "ĠART": 24278, "activated": 33106, "Ġneck": 7393, "Ġcosmos": 39385, "Ġscam": 19126, "Ġcelebrated": 13943, "INGS": 20754, "Ġdrastic": 27069, "Ġdire": 19958, "Ġquestion": 1808, "saw": 43439, "Ġcats": 11875, "true": 7942, "Ġdorsal": 45254, "ĠRoses": 41244, "Language": 32065, "Ġaback": 50147, "Ġbos": 37284, "Ġforeskin": 49877, "allel": 29363, "Auto": 27722, "3333": 24840, "Ġedge": 5743, "ĠCatholicism": 46802, "ĠAcquisition": 44564, "Ġsher": 15059, "ĠMoonlight": 39951, "effect": 10760, "enta": 29188, "Ġveh": 2844, "Ñı": 40623, "cond": 17561, "marked": 23505, "Ġobfusc": 44080, "hetic": 6587, "Ġrevert": 34052, "\";": 8172, "ĠPrevious": 21801, "ISON": 39960, "ourge": 14501, "Ġground": 2323, "micro": 24055, "Ġspirituality": 39409, "ĠRend": 28703, "Ġseeks": 12932, "rible": 5547, "hemat": 10024, "Ġhomer": 44155, "mod": 4666, "ournals": 18408, "ĠCountdown": 47555, "District": 44857, "Ġsender": 29788, "Ġbottleneck": 49936, "ĠJohnson": 5030, "Ġfellowship": 37900, "Ġexpectancy": 29098, "Ġparaly": 26901, "Ġagile": 36710, "isl": 3044, "asin": 47337, "ĠTerror": 14915, "Ġoutlaw": 23716, "ucl": 36616, "English": 15823, "ĠForbes": 22720, "Times": 28595, "Ġinfall": 48124, "Ġslicing": 49289, "Ġcitizenship": 14218, "Ġchant": 33541, "arest": 12423, "Ġfought": 8350, "Ġexcavation": 45499, "illion": 1131, "friends": 36154, "Ġjealousy": 35394, "Ġreverber": 48134, "ĠNapoleon": 28283, "bye": 16390, "ĠReporter": 25869, "entin": 31371, "ĠTycoon": 28222, "norm": 27237, "ationally": 15208, "Ġphysic": 22270, "ForgeModLoader": 24934, "çĦ": 47078, "Ġdetainee": 49436, "Ġbeard": 21213, "SM": 12310, "Ġdracon": 27733, "NR": 24723, "Ġdemocracies": 40416, "ĠPepsi": 38428, "aturday": 3658, "icycle": 35298, "opsis": 24608, "Ġvitamins": 29091, "ĠEFF": 33659, "ĠTHR": 35383, "Ġfortress": 28757, "Ġimpression": 10647, "ps": 862, "ĠAlbert": 9966, "uations": 6055, "ĠSend": 16290, "ĠMold": 29684, "ĠAfrican": 5510, "oti": 5092, "Ġcul": 10845, "Ġscouts": 29663, "ĠDise": 14865, "ĠVII": 19691, "Ġvoluntarily": 22295, "ĠReporting": 29595, "Ġchops": 44512, "ĠFell": 21710, "lex": 2588, "Ġdisputes": 18563, "Ġleakage": 47988, "ĠAbove": 23302, "NN": 6144, "unny": 16948, "/*": 15211, "ĠOst": 38919, "Ġfrantically": 42352, "Stew": 49328, "ĠGO": 10351, "Bl": 3629, "ĠCarry": 36366, "Ġprotocol": 8435, "gian": 18299, "Ġbee": 20697, "Ġcovering": 9505, "Williams": 27869, "Ġcase": 1339, "Ġgloomy": 46400, "Ġfix": 4259, "ĠString": 10903, "Ġpaper": 3348, "ĠGT": 7963, "Ġwishes": 12802, "ĠTeachers": 32426, "ĠAsked": 26220, "ĠDispatch": 35934, "riks": 39370, "286": 27033, "Ġendured": 24067, "Ġkios": 46739, "ĠResults": 15691, "User": 12982, "legram": 30536, "Ġstip": 22111, "Ġpledged": 16387, "Ġfields": 7032, "uddin": 44008, "Ġlogo": 11112, "external": 22615, "Inside": 24441, "Ġconception": 19759, "ĠMondays": 49748, "VIDIA": 13171, "Ġpund": 24745, "Ġhastily": 37205, "Nor": 21991, "Ġfantastic": 9623, "ĠIsraelis": 21137, "Ġchores": 46173, "oths": 27118, "largest": 28209, "ruck": 30915, "Ġcooperating": 34962, "Written": 25354, "Ġextraordinary": 11359, "nown": 3408, "ĠChak": 46620, "234": 24409, "++": 4880, "Ġmetab": 10523, "ĠDrag": 12697, "07": 2998, "Ġclipped": 49305, "ict": 713, "163": 24136, "ometric": 16996, "Ġsmoker": 41644, "ĠShares": 23997, "CHR": 37846, "Ġproduced": 4635, "Ġecological": 25047, "Ġcirc": 2498, "etsk": 29515, "hematic": 23380, "ĠLoading": 12320, "ÄŁ": 33133, "akin": 27048, "Ġadministrator": 18382, "Boss": 37310, "ĠGarfield": 47218, "Ġprof": 1534, "gence": 12745, "GUI": 40156, "Ġfelon": 46849, "Ġdisagrees": 37868, "Ġfacts": 6419, "Ġleukemia": 49030, "IDENT": 25256, "ĠLevel": 5684, "Mat": 19044, "Ġgovernor": 8153, "ĠBryan": 17857, "Ġpilots": 14982, "Ġconfess": 22127, "abetes": 11064, "Ġtime": 640, "¦": 99, "Ġnorthwest": 24821, "ĠComplete": 13248, "Ġinvestors": 7713, "Ġ355": 36561, "Ġadapter": 21302, "Ġintervening": 37294, "OF": 19238, "Ġgraduated": 18303, "ĠReset": 30027, "1984": 28296, "Ġattend": 5262, "ĠTid": 48957, "yers": 21200, "Ġmeanings": 26368, "fitted": 38631, "\"]=>": 23785, "ĠMillions": 39830, "Ġmarijuana": 5727, "Ġwhiskey": 29219, "Ġweight": 3463, "ĠKit": 10897, "Ġdesigners": 15441, "Ġalcohol": 5548, "haus": 30404, "ĠShiny": 39657, "ç«": 44165, "Rare": 26737, "ĠDefinitely": 33562, "joined": 46416, "Ġstarship": 48744, "ibel": 43837, "ĠTai": 11144, "ĠCit": 15792, "Ġseaw": 32085, "reason": 41181, "ĠUltimately": 24199, "ercise": 23697, "ĠBenn": 14025, "Ġquake": 36606, "Jan": 12128, "âĨĴ": 39310, "Ġplugged": 30601, "ĠBreed": 45958, "Ġâľ": 14519, "Ġpublicly": 7271, "Ġpawn": 29649, "Ġunderlying": 10238, "Climate": 37649, "âĹı": 28133, "Lots": 43643, "Ġhash": 12234, "offic": 14406, "Ġcomprises": 28800, "Ġclashed": 37003, "Greg": 25025, "Ġembarrassment": 24655, "Leod": 44559, "ĠConsent": 46869, "Ġbackend": 30203, "Ġintersections": 42085, "ĠHaunted": 43884, "Ġ237": 34385, "q": 80, "aspers": 49412, "ĠAnthony": 9953, "Ġloudly": 23112, "Ġ": 220, "Ġgrievance": 47645, "uggets": 26550, "andum": 25933, "cise": 37561, "Ġpatriarch": 28915, "ĠHastings": 38330, "ĠDowntown": 25657, "Ġreleg": 24542, "Ġsoutheastern": 35618, "ĠTransparency": 49165, "Ġoutings": 47280, "writers": 34422, "ĠIllusion": 37697, "ĠAlm": 25009, "Ġdisguise": 27487, "ĠFill": 27845, "Ġmean": 1612, "Ġdismissive": 49010, "ĠCoordinator": 36831, "ĠCRA": 33416, "estial": 21711, "ictionary": 14188, "Ġconvictions": 19131, "ĠSpecial": 6093, "Ġincoming": 15619, "Thom": 37582, "Ġ139": 23666, "'": 6, "Ġdebut": 8886, "Ġdispensaries": 40698, "iscovered": 41168, "Ġsal": 3664, "Ġblinding": 46573, "Ġnortheastern": 38131, "ware": 1574, "Ġclarity": 16287, "Ġpneum": 29631, "riet": 42098, "335": 27326, "Ġtricked": 42608, "ĠInformation": 6188, "pire": 5111, "Dragon": 17808, "Lind": 43410, "Ġblues": 25570, "ĠTOUR": 49698, "Ġsaddle": 33083, "essional": 12743, "utics": 48063, "ĠMonument": 33075, "Mont": 26031, "Ġworkings": 35084, "BLIC": 32936, "Ġdesignate": 32781, "amia": 49442, "Ġcomes": 2058, "952": 49234, "Ġobjective": 9432, "ĠShelby": 35053, "Ġpipes": 19860, "ĠTheodore": 36494, "Ġmural": 36192, "EF": 25425, "Ġunheard": 36511, "ENS": 16938, "Ġsubjective": 19088, "ved": 1079, ")?": 19427, "ĠBears": 15682, "Ġrollout": 38180, "ĠDakota": 13336, "è¡": 26193, "ĠReborn": 37612, "apy": 12826, "Ġsix": 2237, "Rocket": 50218, "ĠMaking": 16427, "wang": 47562, "ĠEdge": 13113, "ĠLouise": 31774, "ĠCelebration": 44911, "ĠShoes": 41332, "usted": 8459, "-+": 19529, "Ġretract": 34449, "Ġbondage": 43473, "ween": 975, "ĠNotting": 33615, "Ġatheists": 28473, "Ġwood": 4898, "Ġneur": 11943, "Meanwhile": 10294, "ampton": 23427, "aphael": 34889, "Ġhelpers": 49385, "Ġjargon": 46468, "vim": 31124, "ĠSupplementary": 43008, "Ġtrips": 13229, "ĠSwords": 25199, "ĠCorridor": 48994, "Hillary": 20397, "ĠJan": 2365, "Susan": 45842, "Ġsusp": 4012, "Ġmicrophone": 21822, "Ġpraising": 33557, "Ġflavours": 46946, "ĠTemplar": 41741, "eat": 4098, "Ġlisteners": 22054, "ĠVolcano": 48380, "Ġmedals": 28057, "Syrian": 42747, "Ġstates": 2585, "ishops": 21863, "essage": 7589, "atography": 45501, "Ġ133": 22169, "Ġdebts": 20250, "Ġbearings": 39872, "ĠBren": 20465, "Ġgrotesque": 40505, "GT": 19555, "ĠArab": 4498, "ĠEnforcement": 19198, "ĠFSA": 42894, "ĠAura": 29434, "Ġamid": 10371, "éĹ": 29785, "Pict": 21300, "ĠJudgment": 36969, "mere": 34671, "Ġshoulder": 8163, "ĠShan": 14866, "Ġshelters": 23629, "ĠKnowledge": 20414, "Ġzipper": 48992, "Ġglide": 48089, "UST": 7759, "Opp": 27524, "Ġmsec": 43242, "ward": 904, "resses": 16746, "Ġqueue": 16834, "err": 8056, "idential": 35599, "401": 21844, "Ġconvey": 13878, ",''": 14004, "à©": 43297, "Off": 9362, "Ġinterceptions": 28891, "Goal": 49045, "ĠKeeper": 26335, "Ġdreamed": 27947, "Ġpitfalls": 45716, "Setup": 40786, "ĠRaphael": 37464, "ĠTNT": 42490, "Ġthreatened": 8556, "Ġindex": 6376, "Ġsurvive": 7866, "Ġassailant": 45800, "ĠBasics": 45884, "ãĢİ": 40493, "Ġos": 28686, "Ġscored": 7781, "bar": 5657, "stru": 19554, "Ġsoy": 17797, "Dis": 7279, "Penn": 39899, "ous": 516, "âĢĶ\"": 19056, "ĠGPU": 11362, "ĠForum": 14867, "Ġsurvives": 36417, "Ġimportance": 6817, "ĠLug": 31541, "ĠIsn": 25110, "Ġtreated": 5716, "Ġheavyweight": 32489, "Ġclin": 5327, "Ġsegregated": 38135, "ĠDund": 37921, "Ġstolen": 9909, "sale": 21378, "rights": 28046, "ĠDirect": 4128, "nb": 46803, "ĠTRI": 37679, "43": 3559, "obile": 3579, "Ġchoosing": 11236, "Ġdebtor": 49519, "Ġshif": 7143, "ln": 18755, "ente": 21872, "ĠHouston": 6995, "Ġderogatory": 44094, "Ġrepresents": 6870, "Ġnpm": 30599, "ental": 2470, "Ġcheat": 22705, "ĠTarget": 12744, "ĠSpa": 40208, "verty": 8077, "right": 3506, "Ġrugby": 22948, "aves": 3080, "Ġparam": 5772, "ĠChildren": 8990, "unky": 28898, "idation": 24765, "Ġdisguised": 32192, "ĠOffice": 4452, "Ġcharms": 41700, "Ġbottle": 9294, "ĠCon": 1482, "Ġpor": 16964, "ĠToledo": 36026, "886": 44980, "Aim": 49945, "ares": 3565, "Tor": 15884, "Ġremark": 6919, "Ġbriefings": 44091, "ĠBRE": 29377, "Ġdeclare": 13627, "Tact": 45803, "Ġshipped": 14338, "ĠAntarctica": 30185, "amara": 47848, "ĠAustralian": 6638, "Ġattendants": 46337, "app": 1324, "Ġgoals": 4661, "fax": 23560, "Ġwarped": 43062, "Ġperformances": 13289, "ĠVenture": 35686, "raints": 15517, "ĠBill": 3941, "Ġbeaut": 3566, "mol": 43132, "wu": 43812, "ĠOhio": 6835, "name": 3672, "Ġ503": 44541, "Ġmins": 23550, "Ġfestivities": 42735, "Ġtestimony": 9709, "addy": 13218, "Ġmarrying": 34862, "ough": 619, "luck": 46708, "Ġ)": 1267, "ĠGates": 15953, "ĠRag": 38000, "Ġdistraction": 24066, "Ġflared": 50017, "ĠMotorsport": 49996, "ircraft": 27002, "Ġdry": 5894, "Ġnegatively": 22533, "Ġmove": 1445, "vp": 36133, "ĠCelebr": 28921, "ĠSections": 37703, "Ġreiter": 19291, "Ġcheap": 7026, "Ġpour": 12797, "Activity": 16516, "Ġlov": 42900, "oscopic": 48228, "Ġtwisting": 36373, "rug": 2143, "Ġcomplying": 39076, "Ġquantity": 12040, "Ġtackles": 18034, "ĠBooth": 36389, "priority": 49336, "Ġintertwined": 45905, "ĠMap": 9347, "urger": 32650, "lde": 35209, "Ġaffecting": 13891, "ĠBiblical": 31752, "åĪ": 26344, "Ġworked": 3111, "Ġ1200": 24938, "Template": 30800, "ographer": 18539, "cin": 17879, "ĠAMA": 38268, "Ġdummy": 31548, "Ġsubord": 21267, "Ġtransmitting": 39573, "Ġtitanium": 41284, "Ġphysically": 10170, "Ġmoment": 2589, "ĠAle": 9300, "Ġland": 1956, "ĠWak": 46033, "ounty": 17705, "åĮ": 44293, "Ġcautious": 21205, "ĠServ": 3116, "\":\"\",\"": 34713, "Ġcultures": 13817, "Ġrumored": 29586, "Ġcue": 28381, "ĠStevenson": 38681, "ĠWell": 3894, "gear": 31763, "Ġbanner": 17625, "671": 46250, "Ġuniversity": 6403, "Ġlawful": 20785, "Ġchlor": 20207, "eeks": 32201, "Ġdisappear": 10921, "Ġhomework": 26131, "ĠShield": 10022, "hak": 43573, "urgy": 38140, "Ġpassport": 17981, "Ġutilized": 21487, "Chem": 41829, "rites": 23156, "rav": 4108, "ĠPierre": 21204, "ĠInnov": 43405, "Ġxml": 35555, "ĠGrave": 36424, "ĠNEED": 36465, "Ġdisclosure": 13019, "wr": 18351, "ĠFear": 16132, "Ġdivor": 21781, "Ġboobs": 41050, "Ġmedicinal": 30381, "ĠMahm": 31556, "787": 41019, "ĠNEXT": 39726, "APTER": 29485, "ãģ®æ": 27032, "Ġ36": 4570, "Î²": 26638, "amber": 7789, "ĠSmith": 4176, "Ġprinc": 5144, "Ġsting": 24276, "ĠDawson": 32801, "Ġdealer": 16456, "tin": 43701, "W": 54, "Ġprogressive": 10393, "Ġamounted": 30008, "Ġquestionable": 18269, "ction": 596, "Ġcolleg": 13303, "Ġcourtroom": 24832, "Ġacquiring": 22488, "Ġdispar": 14455, "Johnny": 44960, "ascade": 28966, "Ġ:": 1058, "pha": 7566, "ĠMiddle": 6046, "oxic": 18047, "ĠBoone": 44317, "Ġsincere": 17082, "Ġorganic": 10469, "ĠFein": 45711, "ĠVor": 44143, "Ġescorted": 30037, "ĠBook": 4897, "Ġlocalization": 42842, "Ġinvoluntary": 37099, "ĠMoj": 40120, "Ġimmensely": 29731, "Ġpract": 1970, "Ġlegions": 44395, "ĠCarrie": 32462, "yet": 25907, "Madison": 46845, "annis": 45017, "Ġbadass": 37289, "Ġriff": 36738, "Ġpitted": 46852, "120": 10232, "ensor": 22854, "ura": 5330, "ĠButterfly": 39108, "Ġtrem": 10023, "Hub": 16066, "ĠSplit": 27758, "29": 1959, "Ġrespected": 14462, "Ġnovel": 5337, "ĠCanal": 31314, "Bottom": 34104, "Ġsciences": 19838, "ãģ¨": 30201, "communication": 32560, "adium": 6271, "ĠWr": 15634, "Ġ380": 29101, "ĠGamble": 49318, "Ġling": 18459, "ĠResearchers": 26685, "Ġchair": 5118, "ĠSNAP": 48592, "September": 17543, "atural": 2660, "Ġimmortal": 26156, "ĠTrees": 34925, "RB": 27912, "Ġguarding": 33294, "note": 11295, "Ġsubsidy": 28646, "split": 35312, "iste": 40833, "Trigger": 48344, "ĠElementary": 25335, "ĠSimilarly": 15298, "Twe": 32665, "Ġdetailing": 22976, "Ġtransmit": 21937, "Ġvibr": 12611, "ĠLumia": 38194, "Ġ186": 28481, "ock": 735, "ĠSkydragon": 38250, "Ġesc": 3671, "ĠYears": 13212, "Nintendo": 32348, "ĠVul": 25442, "ĠExercise": 32900, "ĠIzan": 35144, "Ġconfession": 24250, "with": 4480, "Ġlo": 2376, "Ġpsychiatrists": 49218, "ple": 1154, "Artist": 43020, "region": 36996, "Ġgorgeous": 18857, "Ġeliminating": 18591, "ðŁ": 8582, "East": 25234, "Ġtoast": 27805, "Ġfarming": 16035, "Ġmasc": 23977, "Ġfederally": 33710, "Cast": 19248, "igrated": 38769, "720": 23906, "rating": 8821, "1970": 30986, "Ġwheat": 17135, "ĠEsper": 42083, "Ġintroduce": 10400, "status": 13376, "Ġoverdose": 27357, "omsky": 37093, "Ġalignment": 19114, "rosis": 37172, "Ġwisdom": 11501, "Ġreopen": 37173, "Ġpositions": 6116, "Ġcomr": 20677, "Ġchosen": 7147, "ĠSavage": 22287, "shirt": 15600, "ĠPascal": 35163, "fort": 3319, "aja": 27792, "ĠBuddy": 36896, "ĠDefinitive": 46634, "Collection": 36307, "Ġtanker": 46335, "ĠNom": 21198, "Ġearn": 5160, "Down": 8048, "yah": 46848, "Ġ1915": 32062, "Ġfourteen": 29167, "ĠPlayed": 33101, "Ġwaterproof": 35158, "ĠAdministration": 8694, "ĠFalk": 32164, "oter": 19543, "emaker": 32174, "ount": 608, "Ġeast": 7627, "ĠBlizz": 46100, "Ġsecrecy": 22780, "ĠVed": 36101, "Ġdecorated": 24789, "Ġladies": 17308, "Sarah": 29284, "243": 26660, "rentice": 20098, "Ġmyriad": 24862, "Ġess": 3209, "ĠPriebus": 37486, "ĠTheft": 26822, "encies": 3976, "rad": 6335, "ĠRaspberry": 24244, "Ġscra": 19320, "ĠDharma": 46707, "aration": 10186, "Ġexecuted": 10945, "Chain": 35491, "elia": 25418, "ĠHydro": 32116, "Ġnitrogen": 23417, "ĠMacedonia": 36353, "ĠWerner": 48642, "Ġowe": 19059, "Ġwounds": 14129, "ĠCutting": 40152, "Ġovertake": 48155, "ees": 2841, "Alias": 40489, "Ġtwice": 5403, "ĠGarrett": 27540, "ĠLGBT": 9916, "ĠWilderness": 40432, "stack": 25558, "Sund": 20602, "selection": 49283, "Ġresting": 19186, "ĠChang": 22597, "worthy": 18275, "Ġwelfare": 9490, "Ġscenery": 31068, "ĠBates": 35591, "acus": 48628, "wife": 22095, "ĠTechnician": 46986, "legates": 37061, "Ġexistential": 28954, "Ġmetabolism": 20211, "Ġsadness": 25303, "ĠHoff": 21890, "soever": 15485, "Ġmus": 1928, "onson": 36742, "Ġdistrict": 4783, "Ġbullying": 20714, "Ġpier": 17748, "Ġproxy": 15741, "ARM": 33456, "Ġ2010": 3050, "Ġrepeating": 20394, "ĠCollider": 50253, "mares": 23745, "ortion": 5817, "Ġasteroid": 27460, "Ġrice": 11464, "flush": 25925, "Ġregul": 3475, "Ġguarantees": 19026, "ilo": 18526, "Ġrespawn": 42929, "Ġnarr": 6664, "Ġgarrison": 45416, "buffer": 22252, "acher": 3493, "ĠVanderbilt": 38684, "bling": 11108, "Ġskating": 33051, "Ġpurchased": 8155, "ĠGators": 47470, "Ġfists": 33053, "Attack": 27732, "ĠDisability": 46454, "ibraries": 11127, "Iraq": 31206, "Wind": 8731, "Looking": 15784, "ĠGetting": 18067, "ĠCubs": 21562, "eline": 4470, "Ġdonate": 16565, "pages": 31126, "Ġabsolutely": 5543, "ĠKara": 34856, "ĠRepeat": 30021, "emer": 24677, "ĠArrow": 19408, "ĠDepth": 36350, "USS": 32835, "ĠCOUN": 31404, "ĠShane": 24379, "zb": 14969, "restrial": 23522, "Ġmagazines": 16695, "rr": 21062, "Ġlaughs": 22051, "Ġarchive": 15424, "acons": 37256, "urtles": 25195, "username": 29460, "Cat": 21979, "ĠBigfoot": 50120, "on": 261, "ĠPun": 14944, "Ġrim": 20254, "ĠPrice": 7886, "ĠFacility": 29118, "Ġch": 442, "Ġmissions": 10566, "Ġtalent": 7401, "Ġrespondents": 14502, "Ġpatiently": 37220, "ĠWide": 23399, "Ġretail": 6308, "Steve": 19206, "ern": 1142, "Ġmask": 9335, "Ġfeminine": 23564, "Ġlett": 35044, "inburgh": 22222, "llan": 47993, "Hung": 39505, "ĠBayern": 30683, "Subscribe": 27125, "Ġcheckpoints": 36628, "ĠConnie": 48506, "ceivable": 48054, "lass": 31172, "Ġhedge": 19859, "Ġaffidav": 21637, "Ġblacks": 15102, "tl": 28781, "Ġimprobable": 40494, "ixie": 39291, "spot": 20485, "emate": 47686, "aunts": 43981, "Ġimmense": 13964, "Ap": 25189, "ĠBlank": 31990, "ĠDO": 8410, "ĠFul": 28040, "ĠPelicans": 48206, "athi": 44202, "ovember": 3239, "ĠMastery": 37799, "Discover": 44596, "Hop": 23483, "Ġtravels": 17781, "Ġshalt": 36258, "ĠHale": 35056, "ãĥ": 1209, "ĠVar": 12372, "ĠSeven": 13723, "ĠWheel": 15810, "ĠGallery": 12917, "ĠAndromeda": 34542, "ĠCompan": 16154, "ĠBout": 40808, "Ġbanned": 9301, "Ġejected": 38632, "ĠGri": 20914, "Ġastron": 10894, "ĠHence": 16227, "Default": 19463, "alcohol": 42142, "ĠLyons": 43728, "Ġadvertisers": 27835, "Ġpredic": 41219, "uds": 24786, "Ġscreenshot": 22032, "ĠKang": 27504, "Ġslang": 39306, "retch": 22592, "Ari": 26529, "upp": 7211, "ĠHuck": 33703, "Ġsame": 976, "uber": 18478, "Ġprovoke": 29791, "mg": 11296, "Ġoutlined": 16493, "ĠMotor": 12533, "Ġconverts": 26161, "Ġpiping": 48426, "Ġvisits": 11864, "Ġconceptual": 23355, "Ġsourcing": 47015, "Ġsm": 895, "Ġreasoning": 14607, "compan": 34390, "Ġsever": 1750, "reement": 10237, "Ġfrequency": 8373, "Senior": 31224, "ĠNicarag": 33288, "Ġcommercial": 5068, "ĠBliss": 44044, "stained": 44279, "Ġeighteen": 29095, "Ġbelow": 2174, "ĠForensic": 49245, "ĠFake": 33482, "Ġinjuries": 6821, "ĠSocrates": 41242, "ĠBanks": 19566, "ĠPeng": 42341, "ble": 903, "ion": 295, "vector": 31364, "ĠSome": 2773, "realDonaldTrump": 28024, "Ġreports": 3136, "tails": 26404, "Ġom": 39030, "Ġdarker": 18646, "Ġbelt": 10999, "Ġchees": 27384, "Ġcur": 1090, "ian": 666, "Ġdoubtless": 48662, "Pay": 19197, "ĠStro": 30183, "ĠCampaign": 13718, "ĠWITHOUT": 42881, "Ġstimulation": 20087, "Ġamount": 2033, "Visit": 31141, "IR": 4663, "Capture": 49630, "ĠLoll": 46478, "Process": 18709, "ĠRemember": 11436, "Ġcommunity": 2055, "oh": 1219, "vious": 1442, "ĠTherapy": 30878, "Dim": 29271, "ĠTornado": 48970, "oto": 2069, "ures": 942, "ĠBP": 20997, "Ġoverheard": 48255, "intendent": 21075, "Ġneed": 761, "aretz": 48338, "ĠTogether": 17083, "ä½ľ": 43291, "odore": 25102, "ĠProto": 45783, "ĠPipe": 36039, "whel": 30613, "ĠToggle": 34098, "Ġlobbyist": 35196, "ardon": 19917, "ĠChem": 12870, "ĠRehab": 41640, "nn": 20471, "Ġangered": 31997, "Ġconsiderations": 18506, "ĠSocialist": 21773, "ĠAFTER": 36050, "Ġpuberty": 35149, "ĠPatrol": 20989, "Ġreconcile": 33570, "lf": 1652, "Ġgrinding": 28436, "Ġfaint": 18107, "AMS": 40834, "ĠTale": 17388, "Ġtenure": 17081, "REC": 38827, "Ġworthy": 12733, "clusively": 44307, "ĠAvenger": 45270, "çķ": 45911, "Ġlooked": 3114, "elvet": 32667, "odiac": 40096, "erson": 882, "ĠHeck": 31679, "Ġmocking": 31202, "oled": 45342, "ĠTurtle": 33137, "ĠAdvis": 17014, "Ġfaces": 6698, "ĠFlask": 46947, "Ġexalted": 46683, "iries": 18561, "Ġarrow": 15452, "ĠAlternative": 27182, "Ġsubtitles": 44344, "ĠPolitics": 17554, "Clinton": 16549, "Ġallotted": 44554, "ĠBasic": 14392, "ĠProvided": 29750, "pp": 381, "ĠHurt": 42566, "ĠRecreation": 34285, "Tags": 36142, "oldemort": 24710, "ydia": 30708, "Ġpolitic": 31723, "idelines": 7984, "Ġpolice": 1644, "Ġpestic": 20213, "Ġsatisfaction": 14676, "Switch": 38978, "Ġra": 2179, "eed": 2308, "site": 15654, "Ġbytes": 9881, "otypes": 13567, "ĠKlaus": 49739, "Ġapps": 6725, "ă": 191, "Ġbroader": 11622, "Ġchallenge": 4427, "ĠLM": 37125, "if": 361, "Ġdetermin": 3416, "DEF": 32988, "ĠWeapon": 13072, "uder": 26651, "Ġbomber": 24065, "Fer": 43362, "Ġglob": 15095, "Ġawarded": 11343, "Ġfluorescent": 42309, "Ġsticker": 27735, "Ġushered": 47098, "Ġequation": 16022, "Ġnaughty": 45128, "begin": 27471, "Ġcornerstone": 39774, "ĠMigration": 36991, "ĠChapman": 29045, "Ġracks": 39843, "Ġmarriages": 20102, "Ġexploration": 13936, "Ġtestimonies": 49904, "ĠGDP": 12396, "ĠSox": 17689, "Ins": 20376, "weapon": 28741, "Ġpicture": 4286, "oplan": 46853, "Harry": 18308, "alach": 33786, "ingen": 36795, "orders": 6361, "Ġlaboratories": 35650, "Ġswayed": 47632, "Ġ1959": 23859, "µ": 113, "rones": 9821, "ĠHua": 43709, "fed": 19082, "Ġprobability": 12867, "details": 36604, "ĠMan": 1869, "Ġhere": 994, "emouth": 46880, "ĠRoyal": 8111, "exit": 37023, "Ġalternatives": 14693, "acial": 18150, "atial": 34961, "ĠLiquid": 21020, "Ġantiquity": 46599, "trade": 25351, "berry": 8396, "Ġactions": 4028, "Ġcoordin": 11385, "aux": 14644, "ĠGovernors": 40056, "rely": 38015, "Mario": 42315, "embed": 20521, "Ġobligated": 31586, "Â´": 18265, "alities": 27969, "Ġdop": 22340, "locks": 28860, "ĠLords": 18651, "anks": 2283, "Ġairing": 31701, "Ġcla": 26435, "ĠNicolas": 29737, "Ġrealism": 30787, "Ġsed": 10081, "ETF": 22274, "uses": 2664, "Ġrightful": 43133, "ĠWarcraft": 26952, "universal": 40082, "Ġglove": 29144, "ĠShepard": 28606, "FIELD": 44603, "ĠBaldwin": 26402, "Ġcal": 2386, "ratom": 44616, "Ġimpl": 4114, "ĠSSH": 33825, "ĠLDL": 37654, "forward": 11813, "Ġweighed": 20261, "ĠMuch": 13111, "ĠRoland": 29761, "Ġbuilders": 31606, "ĠVIDEO": 35507, "spons": 20587, "Ġunnecessarily": 38347, "Ġalmonds": 48793, "Flow": 37535, "Ġestimating": 39539, "Ġrestaurant": 7072, "Ġbrow": 4772, "\\\\\\\\\\\\\\\\\\\\\\\\\\\\\\\\": 34604, "ĠAbout": 7994, "Ġpassively": 49947, "blood": 18041, "40": 1821, "ĠCO": 7375, "Ġdefend": 4404, "Ġconstantly": 7558, "rylic": 34554, "ĠChim": 28466, "ĠManny": 44745, "ita": 5350, "vernment": 11355, "585": 38905, "ĠIndie": 31527, "Royal": 41861, "Ġremains": 3793, "Ġ('": 19203, "iesta": 36283, "ĠRhodes": 25656, "Ġcellphone": 26346, "ĠParables": 49409, "OFF": 27977, "ographics": 24188, "ĠTanzania": 37270, "ĠAnth": 8451, "Ġgovernmental": 21850, "ernels": 44930, "Ġspotlight": 17838, "forms": 23914, "ĠEpisode": 7922, "AAA": 29697, "Ġprovincial": 15818, "å¿": 33232, "lymp": 6760, "Yang": 38663, "Ġpropelled": 40390, "ĠOperation": 14680, "alo": 7335, "Ġnaval": 19014, "aturdays": 39724, "ĠPv": 18367, "Ġdeliveries": 31167, "ĠCraig": 13854, "stant": 18797, "ĠOrganic": 31734, "Ġteaching": 7743, "Texas": 21607, "Ġbeer": 6099, "ivably": 47994, "Ġeradicate": 39339, "hy": 12114, "Ġpreviously": 4271, "eez": 33105, "ĠMast": 30868, "Ġconfronted": 16675, "2014": 4967, "osphere": 22829, "Ġeager": 11069, "uci": 42008, "Ġsuggesting": 9524, "ĠLebanon": 16849, "\":": 1298, "opol": 39704, "ĠPhilipp": 9844, "iss": 747, "beck": 27343, "ĠLAN": 24192, "Ġresistor": 45032, "Ġeyes": 2951, "ĠIsaac": 19068, "ĠMother": 10584, "Ġminds": 9017, "Ġcultured": 45847, "ĠJewish": 5582, "iler": 5329, "oda": 11329, "aro": 12022, "Ġpet": 4273, "absolute": 48546, "ĠFuj": 32671, "Ġeaten": 17065, "Ġthirsty": 47124, "Hay": 31306, "::::": 24022, "Ġhandic": 29103, "gate": 10494, "Ġunemploy": 8707, "ĠVia": 33356, "imag": 48466, "ĠUpper": 20390, "Cam": 21701, "icular": 13174, "Ġinstr": 6480, "ĠConscious": 45595, "Ġdatabase": 6831, "Ġ+=": 15853, "ĠMini": 12558, "So": 2396, "Ġtornado": 33718, "Ġvillain": 16687, "ĠDak": 11775, "udic": 28673, "indle": 42343, "ĠNik": 11271, "ĠONLY": 22224, "xp": 42372, "repre": 10353, "mission": 3411, "ĠMadd": 21457, "ĠInput": 23412, "Ġparts": 3354, "ĠScore": 15178, "Armor": 31512, "ĠCooper": 10382, "iard": 42425, "Ġtone": 8216, "Ġspecifications": 20640, "ĠRoose": 18589, "Ġrecalled": 12433, "Ġmicrowave": 27000, "repeat": 44754, "break": 9032, "esting": 37761, "Ġthrottle": 29976, "ĠVend": 44220, "Ġcarcin": 28164, "Ġ1972": 16101, "Ġbottom": 4220, "ĠSantana": 49067, "ish": 680, "Europe": 16112, "00000000": 8269, "relative": 43762, "ĠSerious": 32231, "Ġdetecting": 31521, "Ak": 33901, "ĠEquality": 31428, "Ġtexts": 13399, "ĠDon": 2094, "Ġzo": 40565, "Ġinvestigates": 44846, "gram": 4546, "Ġlang": 42392, "ider": 1304, "Hong": 48559, "ĠÂłĠÂłĠÂłĠÂł": 22686, "Ġsorrow": 24140, "Ġkill": 1494, "ĠRw": 31641, "ĠSquadron": 27242, "Ġelaborate": 15962, "BOOK": 39453, "ĠAlvarez": 36952, "ileen": 42236, "91": 6420, "Ġblackmail": 32625, "Ġstory": 1621, "ĠCredits": 29501, "ĠProvincial": 46719, "aw": 707, "Ġeditorial": 13684, "Ġintending": 38939, "Ġprecipitation": 32025, "Ġtrenches": 40068, "Ġsoda": 20584, "Ġconsortium": 36451, "thread": 16663, "ĠNora": 32561, "ĠWinchester": 40868, "Ġdefect": 11855, "Ġtread": 23153, "ĠWrath": 28258, "ĠVolunteers": 45646, "ĠHuckabee": 38253, "Ġeru": 13724, "ĠXavier": 30825, "Ġmedian": 14288, "Ġignited": 40442, "ĠProjects": 29898, "Inf": 18943, "Ġberth": 45015, "Ġzeal": 27689, "opher": 8803, "eter": 2357, "Ġchannels": 9619, "Ġpineapple": 45540, "996": 38565, "amen": 41763, "ĠTroll": 28037, "ĠProcessor": 32893, "Ġbudgets": 21011, "ĠBrooke": 46459, "Ġasshole": 29836, "ĠHER": 24906, "Ġmercenary": 39876, "Ġdeliver": 5203, "Ġaccuses": 35062, "æī": 33699, "Whit": 43617, "ĠIncreased": 25944, "ĠPr": 1736, "Ġpolling": 13985, "ĠSeth": 20194, "Ġlipstick": 41429, "Ġemphasizing": 36360, "Ġsimplest": 24043, "Ġantioxid": 28360, "gal": 13528, "ĠEG": 41513, "hew": 6391, "Ġdirector": 3437, "ateg": 2397, "ĠOnion": 34733, "ĠTee": 49350, "lis": 27999, "Ġinfographic": 48033, "ĠAdd": 3060, "Ġsleeps": 44263, "Ġhad": 550, "Ġblog": 4130, "Lev": 32163, "Sil": 15086, "ĠMaterial": 14633, "Ġnecessary": 3306, "Ġtouted": 28275, "Charles": 28711, "Lady": 38887, "ĠHorizons": 39519, "Ġactor": 8674, "ĠRO": 15107, "Requires": 39618, "ĠIcon": 26544, "Ġheadquartered": 48583, "ĠLv": 24388, "itate": 12027, "Ġcollectors": 26668, "Ġengulf": 30443, "dimensional": 19577, "ĠKau": 28148, "angible": 39639, "Ġtouting": 48120, "Ġcrypto": 21473, "Reilly": 25819, "Ġdin": 16278, "ĠOf": 3226, "Ġvisc": 31116, "Ġcurse": 17328, "Ġsoar": 48701, "inki": 38799, "ĠCore": 7231, "Termin": 44798, "å¸": 30585, "served": 45852, "ĠShips": 34844, "washed": 45462, "Ġtreasure": 14068, "Ġedible": 35988, "vir": 37040, "Ġkinetic": 37892, "Ġhypothal": 48641, "ĠNE": 10635, "gz": 34586, "Ġhither": 37706, "Ġcandy": 18550, "Ġdoom": 27666, "Ġtonight": 9975, "iosity": 15023, "ĠNeb": 29837, "ĠVeg": 8427, "itta": 48519, "Ġpossibilities": 12779, "Ġguesses": 44774, "fetched": 50012, "Ġmatters": 6067, "ĠZombies": 23274, "ĠImaging": 48656, "Ġforests": 17039, "Ġdaring": 27939, "Ġbounty": 24180, "ĠDemocratic": 4390, "Ġdwind": 30692, "Ġdust": 8977, "ĠRevival": 48095, "Ġpredictable": 20039, "ĠInd": 1423, "Ġnotion": 9495, "Ġvans": 47930, "Ġcrowd": 4315, "Ġvehement": 36284, "ĠHockey": 17277, "Absolutely": 40501, "Ġindexes": 39199, "Ġsock": 32263, "Ġstrengthening": 24175, "ãĥĸ": 24001, "parser": 48610, "Ġexplain": 4727, "Ġashes": 29914, "Ġcascade": 44847, "Ġunified": 22706, "ĠNaruto": 22170, "2019": 23344, "orians": 45825, "acks": 4595, "Ġalerts": 21675, "nov": 37302, "edged": 48916, "illard": 32681, "Shift": 33377, "Wiki": 32603, "ĠComputer": 13851, "ĠHuawei": 43208, "viol": 17069, "Ġsculpture": 26924, "Ġplurality": 36325, "Ġagreeing": 24093, "ĠRanger": 21888, "feature": 30053, "ĠRequest": 19390, "Ġnumb": 35519, "Ġoccasions": 12432, "ĠSask": 23541, "Financial": 43621, "Ġstay": 2652, "antics": 29320, "itute": 3678, "Ġheroism": 48661, "ĠGazette": 38772, "Gay": 41787, "click": 12976, "Ġmusicians": 17245, "Ġcrunch": 23527, "Ġunsettling": 38192, "ĠSonic": 18426, "ĠPoll": 12868, "Ġswirl": 42835, "maid": 23151, "ĠTestament": 18318, "Ġexaggerated": 25291, "production": 25493, "ĠWolf": 8662, "Ġkicked": 12165, "ingo": 32735, "Ġtribute": 17547, "ĠGuru": 38749, "qs": 48382, "ape": 1758, "Ġdistinguished": 18876, "Ġsham": 23565, "ĠInsert": 35835, "Ġflank": 30172, "Ġdivert": 36583, "Ġnarrower": 40369, "Ġrover": 35761, "Ġexotic": 21036, "OUGH": 32632, "Ġwent": 1816, "ĠIPS": 37632, "Ġingenious": 44207, "Ġ312": 34465, "Ġedits": 31671, "ĠFunctions": 40480, "eals": 10621, "ĠStadium": 10499, "Ġspeaking": 5486, "Dead": 20489, "df": 7568, "ĠSimilar": 11014, "Above": 32397, "ordinate": 45480, "ĠSupplement": 23150, "ĠHass": 20300, "Ġmelting": 24203, "ĠAg": 2449, "ĠMinor": 15367, "ĠRice": 13823, "TABLE": 38148, "Ġages": 9337, "Ġbusiest": 42745, "elly": 6148, "perse": 38696, "waukee": 15428, "Ġdep": 1207, "Ġsexism": 24953, "ĠARTICLE": 48301, "Ġinduce": 21155, "Ġrooting": 40105, "Ġwreck": 15228, "Ġjungle": 20712, "WT": 39386, "ointment": 49805, "ĠSirius": 21795, "Ġslaughter": 17968, "ĠBroadway": 20617, "Ġresidual": 29598, "youtube": 11604, "Font": 23252, "mn": 10295, "ĠSports": 7092, "ormal": 6636, "atti": 34891, "surv": 48846, "Ġcaptcha": 48972, "ĠIB": 34782, "isition": 10027, "Ġsuspicious": 13678, "Ġmidterm": 44066, "574": 46900, "WARN": 37771, "ĠEmpires": 35102, "Ġrestructuring": 32324, "changes": 36653, "lighting": 43351, "Ġbluntly": 44514, "ĠGuatemala": 32183, "ĠHal": 11023, "Ġlargely": 5688, "nard": 40542, ").[": 42669, "Ġgcc": 49582, "Ġrevenge": 15827, "ĠGrounds": 44201, "Profile": 37046, "Ġcol": 951, "Ġclubs": 9784, "lege": 2765, "757": 39251, "ĠHIM": 45909, "Ġaffirmation": 46365, "Ġprey": 15974, "Ġtesting": 4856, "Ġmotorcycles": 39404, "ĠEnhanced": 22104, "ĠBEN": 44849, "Ġpert": 22146, "212": 21777, "ĠG": 402, "payers": 45773, "ĠFleet": 20001, "Ġblamed": 13772, "Hy": 21217, "ial": 498, "ĠCurse": 19739, "anuts": 37555, "Ġdeficits": 22729, "ĠInf": 4806, "Ġhumid": 35441, "ĠAdv": 8007, "Ġverification": 19637, "Donnell": 24853, "Ġfinally": 3443, "azor": 17725, "chall": 36747, "Ġpers": 2774, "ĠLeo": 19632, "ĠIndex": 12901, "ĠGrowing": 37487, "Ġmicroscope": 36396, "Ġabduct": 24827, "Ġcarb": 13265, "550": 22730, "Ġlifts": 27103, "Ġinward": 29879, "ĠPLA": 45838, "ĠFoss": 40515, "Chance": 43606, "Aug": 12512, "Ġforged": 24918, "ĠConstruction": 20395, "catentry": 39165, "437": 43284, "Ġaccelerating": 32253, "usat": 37937, "ĠStef": 22350, "ĠRadical": 38352, "Dest": 24159, "ĠFr": 1305, "Ġfracking": 25441, "cks": 4657, "German": 16010, "Ġprogrammers": 24867, "ĠCla": 27166, "Whenever": 28877, "increasing": 42647, "ternal": 4358, "ocity": 11683, "Ġobey": 22389, "Ġunmarked": 46791, "ĠCNBC": 34881, "Ġpopulous": 44042, "cast": 2701, "Ġeffectiveness": 13530, "flake": 47597, "ĠGROUP": 44441, "Ġirregularities": 48302, "iegel": 28210, "Residents": 42347, "offensive": 45055, "ĠNotice": 17641, "Girls": 41044, "152": 17827, "ĠTaxi": 49227, "Ġdisappointing": 17185, "erg": 6422, "athom": 32910, "786": 46302, "please": 29688, "file": 7753, "ochem": 18958, "Ġeternity": 28989, "ATTLE": 35455, "scl": 38528, "Ġhereby": 29376, "Adventure": 48289, "ĠAttacks": 24647, "Ġcollapse": 9807, "Ġdeteriorated": 44525, "ON": 1340, "Ġfreshly": 29026, "Ġplaintiffs": 21880, "ĠLup": 32244, "udge": 12587, "Ġdocumenting": 33045, "ĠSadd": 20454, "Ġwithholding": 34180, "Ġattentive": 45660, "ointed": 20909, "ĠMilitary": 12842, "ĠKendall": 36779, "gger": 26679, "replace": 33491, "Ġdates": 9667, "ĠJS": 26755, "ĠRo": 5564, "Ġly": 22404, "ĠXL": 16276, "ĠTaiwanese": 41777, "Ġreproductive": 18391, "{\\": 31478, "earchers": 16604, "ĠRating": 12028, "ĠIgn": 16583, "Ġarts": 10848, "Ġaka": 22430, "Holy": 33336, "ĠHungarian": 27304, "ĠBut": 887, "label": 18242, "Ġburglary": 33724, "Ġcor": 1162, "Ġengulfed": 40997, "Ġkcal": 49504, "Ġstalls": 40308, "Trade": 35965, "306": 20548, "ettes": 23014, "ĠSHOULD": 40312, "ĠPrague": 37079, "ĠRPC": 39400, "alus": 46781, "ĠDesire": 41042, "Ġregimen": 37086, "Ġjugg": 24873, "ĠAnne": 15397, "Ġprinciple": 7989, "()": 3419, "ĠCentOS": 32418, "ĠKashmir": 24664, "Ġcomprehensive": 9815, "Term": 40596, "ĠPars": 23042, "Ġdemanded": 12284, "Ġfilmmaking": 49291, "Ġlimiting": 15637, "Ġmortals": 49008, "ĠTrace": 34912, "Ġarms": 5101, "ĠPalestinian": 8501, "ONY": 40508, "Ġopen": 1280, "Ġcreep": 13972, "Ġclinical": 8668, "Ġmirrors": 22353, "rote": 2519, "ĠISP": 33086, "ĠElect": 5903, "Ġsettings": 6460, "ounces": 45982, "åĩ": 49035, "STAR": 46678, "Behind": 34163, "icide": 5285, "tips": 41315, "DJ": 35028, "ĠAoE": 39703, "Ġprintln": 44872, "Ter": 15156, "219": 28896, "heres": 19079, "Everyone": 16190, "ĠOwn": 11744, "Ġsigns": 5895, "Ġguess": 4724, "Ġener": 2400, "artifacts": 50179, "Ġcharacterized": 16264, "Ġ392": 48207, "Deploy": 49322, "Ġstuck": 7819, "ĠTravis": 19804, "eps": 25386, "Ġaccessory": 28207, "ĠDistrict": 5665, "ĠSUPPORT": 43333, "Ġcarried": 5281, "Ġincom": 15501, "Ġmassively": 28161, "ĠWikileaks": 35828, "Required": 37374, "Ã¢": 22940, "Ġediting": 12857, "ucle": 14913, "chard": 30215, "Ġtrick": 6908, "ĠNAME": 36751, "ĠOri": 17954, "Submit": 45135, "Ġaltitude": 20334, "colo": 45745, "ãĢĮ": 13697, "Wikipedia": 48845, "Ġcourage": 11917, "ech": 3055, "ĠYas": 25957, "Ġmaneuvers": 38974, "ombat": 41628, "utherland": 45384, "Ġcolossal": 41197, "ippery": 29530, "1600": 36150, "Cooldown": 45953, "achu": 32323, "icians": 5106, "ĠUmb": 35716, "Ġdish": 9433, "Ġcaveat": 36531, "Ġresettlement": 45948, "Ġaids": 31378, "hap": 45897, "ential": 1843, "ĠBung": 40646, "Ġfractures": 39381, "Anyway": 23795, "ĠVOL": 38570, "circle": 45597, "Ġsmash": 24273, "ign": 570, "Ġoxid": 18762, "Ġgrasped": 45569, "ĠTweet": 18752, "ĠRadius": 48838, "Ġearned": 7366, "Ġproletarian": 47393, "ĠStewart": 13671, "ĠRouhani": 34915, "Ġcrowds": 15779, "ĠWolfe": 37013, "ĠNAV": 47140, "atel": 25791, "Ġsubclass": 47611, "Ġrespectfully": 41177, "ĠCroatian": 48853, "ĠCOL": 20444, "Ġhalfway": 19487, "tro": 23528, "ĠResponse": 18261, "Ġconfisc": 22735, "Ġcandle": 26839, "Ġdelta": 25979, "ĠCooking": 33774, "dump": 39455, "ĠBerkshire": 49927, "Age": 23396, "VOL": 44558, "oba": 19981, "ĠFan": 13836, "ĠDescription": 12489, "Ġaft": 46088, "Ġwelcome": 7062, "ĠSyrian": 6318, "ĠPDF": 12960, "ĠChiefs": 18733, "Ġbull": 6473, "Ġrace": 3234, "ulia": 43640, "Ġilluminating": 46717, "Ġonion": 21670, "ĠSyndrome": 27109, "oli": 11106, "ĠJerusalem": 10843, "ĠPatriots": 13104, "Ġlou": 21081, "Ġcurve": 12133, "ĠThor": 13002, "USH": 27143, "similar": 38610, "Debug": 27509, "ĠSmy": 45083, "obi": 13411, "becca": 20627, "Ġtame": 37812, "Ġoriented": 25921, "ĠYu": 10605, "ĠDEFENSE": 48551, "Fire": 13543, "Ġyoungest": 18887, "Ġministry": 11957, "ranged": 34457, "strings": 37336, "ifty": 24905, "Ġinhuman": 40190, "arrell": 47769, "Ġtissues": 21379, "EH": 42413, "Ġchore": 30569, "Ġtournament": 7756, "ĠPix": 21642, "ozyg": 49834, "KN": 29132, "ĠFurn": 34937, "ĠEug": 20665, "Ĭ±": 46788, "Ġshortcuts": 32953, "ĠOUT": 16289, "LECT": 16779, "Ġmaturity": 24841, "mus": 14664, "Ġcurv": 46171, "ĠNer": 21783, "Ġrelegation": 47652, "Ġunanswered": 34001, "ĠAppeals": 20172, "Ġaccum": 10507, "Ġpudding": 44670, "ĠImplement": 48282, "ĠCree": 45699, "Ġheading": 9087, "åĽ": 32368, "ĠSalad": 42706, "ĠUA": 46164, "ĠWolfgang": 48566, "Whatever": 21875, "str": 2536, "Ġshredded": 37624, "Ġoperated": 12228, "room": 3823, ".*": 15885, "454": 34229, "Ġforg": 5784, "Ġyouth": 6205, "Ġpatri": 12650, "Ġprec": 3718, "iced": 3711, "ĠPyro": 44954, "Ġmotorcycle": 18757, "Ġdetect": 4886, "Ġunfortunately": 12716, "Ġanonymity": 18685, "ials": 8231, "Ġswaps": 43997, "ĠGarland": 35466, "iterranean": 19012, "Ġcommentary": 14604, "Ġwhistleblowers": 46147, "Ġliqu": 14756, "ĠPryor": 45350, "ĠMcKenna": 48403, "drop": 14781, "ĠCodex": 41982, "operative": 27173, "Ġbiomass": 42584, "Ġbound": 5421, "ĠWhenever": 21326, "President": 10364, "independence": 39894, "Quant": 24915, "ĠPow": 14120, "ortex": 26158, "Ġadvantageous": 39512, "Ġshy": 15800, "Ġlearned": 4499, "ĠSher": 6528, "aging": 3039, "ĠCentauri": 48278, "Ġmold": 15936, "ĠAnimals": 25390, "ĠHyder": 47660, "ogen": 6644, "Net": 7934, "Ġdecl": 2377, "225": 18182, "Ġskinny": 29494, "ĠGener": 2980, "ĠSpears": 45978, "ĠPublic": 5094, "liament": 5130, "ĠVoter": 46226, "STON": 41924, "Ġdev": 1614, "thouse": 23931, "competitive": 46131, "Ġtargets": 6670, "ĠTable": 8655, "oor": 2675, "Ġdisappro": 22293, "itated": 13939, "icidal": 21488, "Pro": 2964, "Ġawkward": 13006, "ĠShit": 41356, "Ġdialogue": 10721, "oulder": 17601, "Ġcontestant": 44047, "Ġdevote": 24103, "Ġperfectly": 7138, "Ġcreatine": 49346, "ĠFranks": 50099, "ungle": 13687, "ĠUncommon": 36770, "iah": 9520, "Ġinterfering": 32874, "cdn": 32341, "Ġana": 44763, "ĠRut": 21214, "Ġchronically": 49386, "ĠMental": 21235, "Tenn": 43139, "Ġrecal": 42653, "Ġruby": 43506, "Ġmart": 11277, "Ġmurky": 39574, "Ġweakened": 24135, "ĠPast": 11303, "Ġmidfield": 12459, "ĠLerner": 49750, "Ġninety": 37989, "rown": 2053, "Hero": 30411, "ĠRadar": 38426, "ĠLuke": 11336, "Ġdaunting": 30496, "Ġcommands": 9729, "Ġtoughest": 28212, "LC": 5639, "Jamie": 48337, "Ġessay": 14268, "Ġintroduces": 20718, "Barn": 47359, "Ġcrosses": 24234, "Ġcrappy": 40805, "Ġmulticultural": 34641, "Ġveggies": 39425, "Ġprevents": 15174, "olor": 45621, "rification": 38763, "Machine": 37573, "ĠGl": 2671, "isance": 31872, "Ġsupervisors": 36520, "Ġspecimens": 27569, "Ġtent": 11105, "Ġseizures": 24715, "ĠWalk": 6857, "ĠNOTICE": 28536, "arget": 7641, "ĠAnalog": 50088, "Ġmajors": 26353, "Ġenduring": 24056, "ĠCOM": 9440, "casts": 40924, "Ġdetract": 31041, "IGH": 18060, "Ġdrafts": 30247, "Ġmight": 1244, "Â§": 16273, "inging": 14146, "Ġdurability": 26578, "Ġreconstruction": 25056, "sel": 741, "ĠUri": 46688, "Ġhealth": 1535, "ĠPublication": 45065, "Ġnarration": 45127, "Ġhand": 1021, "Ġsilenced": 38086, "Ġsw": 1509, "Ġconsume": 15000, "Ġsevere": 6049, "param": 17143, "Ġloving": 14442, "Ġbesieged": 41680, "Ġnort": 17605, "ĠSOS": 42707, "Ġadvers": 16907, "ãĤ¹": 8943, "Davis": 36462, "arie": 49173, "qu": 421, "comfort": 21598, "ATIVE": 37045, "ĠBLACK": 31963, "ĠMalk": 41980, "Ġtwist": 14528, "Ġtoured": 44035, "ĠMillennium": 26139, "WAYS": 42451, "Ġciting": 12988, "Ġmanned": 34737, "Ġflakes": 42330, "ammy": 46736, "oyal": 4815, "ĠReflex": 43214, "ĠConfederacy": 45252, "Ġarenas": 46168, "Ġactivate": 15155, "ĠState": 1812, "Ġhangar": 44338, "Ġdeer": 20096, "Ġlively": 29696, "ĠPork": 44062, "Ġadopt": 11206, "ĠPunch": 24265, "ĠRandomRedditor": 36173, "ain": 391, "Ġbrainstorm": 48733, "ĠWeinstein": 22473, "ĠAssociates": 29306, "Ġfitt": 43500, "Ġswitched": 15293, "É": 133, "Ġsynt": 7419, "ĠAAP": 31518, "Ġtabloid": 43968, "Ġremed": 20100, "Ġinstant": 9113, "Ġknowingly": 26526, "Ġtremendous": 12465, "roy": 3287, "isodes": 8052, "ĠPROV": 36592, "albeit": 45781, "Ġburn": 4245, "Ġemerge": 14740, "Ġvetted": 48383, "ĠMahmoud": 38554, "Ġ333": 23460, "Ġlonely": 21757, "Ġannot": 24708, "Ġdefending": 11749, "Ġassoci": 2570, "lad": 9435, "Ġcategory": 6536, "Ġeld": 18441, "Ġfrank": 14346, "Ġ129": 20248, "Ġbottles": 14096, "Ġliter": 4187, "Ġtired": 10032, "Ġsheds": 40904, "stellar": 28732, "mination": 17928, "ĠSamar": 34077, "Ġsibling": 33423, "Ġcity": 1748, "Ġhumanities": 47824, "mut": 21973, "ĠGly": 27949, ")=": 47505, ")...": 26513, "ĠBluetooth": 19263, "Ġevils": 33980, "ahan": 19210, "cart": 26674, "×ľ": 40010, "Sel": 48767, "Ġeg": 29206, "Bal": 24597, "680": 37397, "Ġaccomplished": 13013, "anyahu": 15966, "uba": 22013, "Ġ198": 2757, "Ġbirds": 10087, "Ġinterruption": 41728, "Ġathlet": 6976, "ela": 10304, "ĠAce": 17102, "ĠHobby": 44327, "uffs": 18058, "dp": 26059, "Ġassailants": 49690, "ĠRepresent": 10858, "ĠCald": 29182, "am": 321, "power": 6477, "ĠKemp": 44198, "ĠMonday": 3321, "Ġmosquitoes": 35573, "Ġcomplicate": 45058, "ĠSega": 29490, "avi": 15820, "Ġfascism": 31037, "Ġpaused": 24487, "ĠOffer": 33085, "Ġconfrontation": 19207, "Ġaccusation": 25984, "Distance": 45767, "Ġmarsh": 22397, "Ġcelestial": 33258, "Ġaven": 27968, "ucked": 17758, "par": 1845, "Ġslated": 23488, "Alex": 15309, "Ġneighbour": 12250, "Shape": 33383, "ĠLiberty": 14734, "Ġsympt": 6585, "Ġeng": 1786, "Ġ\"$:/": 32047, "Ġclown": 25573, "Ma": 21467, "ĠPIT": 49040, "ĠPsychiatry": 28897, "ĠTos": 40195, "Ġ1947": 21709, "obbies": 41372, "ĠPeck": 48434, "gren": 32762, "ĠKirk": 13855, "Ġfren": 22832, "Ġquirky": 37276, "On": 2202, "Ġforbids": 44114, "Ġcollaborators": 37886, "fre": 19503, "Ġoptic": 43151, "ĠAbdul": 23547, "Ġorient": 11367, "Java": 29584, "ĠIssa": 47410, "Ġspare": 13952, "Ġcylinders": 43386, "Ġdisciples": 23351, "378": 30695, "Ġspent": 3377, "ĠAsylum": 36885, "ĠLev": 16042, "Ġsinister": 26592, "Ġlyr": 47188, "Ġembryonic": 49710, "crime": 28126, "property": 26745, "foreign": 38823, "Ġmemory": 4088, "Ġhighways": 27239, "Ġ______": 44435, "ĠNay": 38808, "lust": 38878, "edIn": 20801, "ĠIntern": 2445, "ĠTaxes": 42260, "fet": 34045, "Bring": 31416, "ĠPie": 21690, "Ġrecounts": 39851, "rocket": 30431, "Ġwhichever": 26204, "ĠLiver": 45036, "ĠBD": 28023, "Ġrend": 9851, "Things": 22248, "Ġregister": 7881, "Ġteased": 35380, "outhern": 4927, "ĠColonel": 21636, "ĠLifetime": 40870, "Ġworst": 5290, "Ġinning": 21648, "Ġmuseums": 30794, "ĠCain": 28370, "transform": 35636, "ĠWalter": 15819, "Ġthinks": 6834, "Code": 10669, "stein": 5714, "Ġlongevity": 28188, "Ġbloggers": 30357, "Ġgenetically": 20807, "utation": 7094, "Ġtariff": 36427, "cript": 6519, "cester": 33187, "Ġroutes": 11926, "Ġvelocity": 15432, "ĠCool": 15226, "Ġespecially": 2592, "Freedom": 38885, "ĠDocument": 16854, "Ġmm": 8085, "Ġhappened": 3022, "ĠMotors": 19292, "ĠTherefore": 8447, "Ġconstants": 38491, "rance": 8132, "Brexit": 40730, "Ġmark": 1317, "flo": 48679, "ĠIdeal": 41765, "ĠGorge": 48420, "Ġexqu": 33954, "Ġbas": 1615, "uable": 7153, "Ġrunaway": 39732, "Ġmessaging": 19925, "Ġwhispers": 37806, "yon": 19181, "Ġaccidentally": 14716, "Ġalgorithm": 11862, "Ġlonger": 2392, "Ġvinyl": 23275, "NI": 22125, "Ġparticipants": 6809, "ĠEagles": 13785, "ĠTrain": 16835, "Ġfunctional": 10345, "ium": 1505, "Ġamaz": 40642, "Ġannotations": 37647, "Ġast": 6468, "sys": 17597, "onel": 26261, "Ġanim": 2355, "Ġimmediate": 7103, "Ġtv": 31557, "Ġdeviations": 47060, "ĠMC": 13122, "ĠChevron": 50083, "Ġleveled": 33297, "Ġfort": 6285, "ĵ": 241, "Ġage": 2479, "Ġcele": 3879, "ĠPresidential": 17471, "hetamine": 25385, "Ġ--------": 24200, "ĠSue": 26089, "ãĤ¤": 11482, "Aid": 44245, "Ġplanting": 26630, "Ġassemble": 25432, "oodoo": 36038, "ĠMadness": 24452, "ĠMO": 13070, "yrs": 48489, "ĠTillerson": 26058, "ĠDisc": 8444, "Ġdonated": 15863, "arma": 10961, "ĠPetersburg": 27051, "Ġliving": 2877, "Ġtangible": 24607, "Ġworrisome": 48367, "Ba": 34458, "ĠAthletic": 29007, "Ġunfocused": 28312, "ĠConspiracy": 38786, "ĠMachine": 10850, "Govern": 29168, "Ġdouble": 4274, "ppings": 37840, "ĠLip": 24701, "Ġleases": 38522, "Ġproclaim": 23930, "TO": 10468, "ength": 3286, "ĠThursday": 3635, "Ġgal": 9426, "se": 325, "umbai": 21645, "ĠDisneyland": 36312, "ĠCarroll": 21298, "ilian": 35824, "Ġ214": 28277, "155": 18742, "KA": 25123, "ĠWinn": 19454, "Ġspecificity": 40763, "Ġslices": 24314, "Specific": 32419, "********************************": 17174, "creation": 38793, "ĠTownsend": 46811, "ĠHitchcock": 49817, "LG": 41257, "ĠGuitar": 31550, "426": 42780, "Ġchess": 19780, "Ġbatches": 37830, "arre": 9624, "features": 40890, "Ġlug": 49419, "Ġsinks": 38614, "PIN": 44032, "ĠTF": 24958, "ĠWilliamson": 34974, "ĠCreat": 7921, "rices": 45977, "Ġrapp": 29106, "Detroit": 40404, "Ġputting": 5137, "arah": 23066, "ENG": 26808, "amsung": 30136, "Ġoriginating": 37962, "Ġunauthorized": 22959, "vertis": 3346, "Through": 15046, "igan": 5516, "ĠClaus": 33989, "ated": 515, "lique": 41522, "Comb": 20575, "Isn": 41451, "Ġeas": 1396, "ĠPu": 11634, "Ġadministrative": 11553, "Super": 12442, "aii": 42648, "Ġresize": 47558, "ĠAvalanche": 39372, "Ġacts": 6529, "Ġmembranes": 43447, "Ġmaritime": 30017, "Ġjoke": 9707, "GD": 45113, "ĠWim": 39999, "Ġfur": 9230, "DEM": 39429, "Ġtoile": 13392, "Ġintimidated": 36601, "ots": 1747, "ĠCombo": 34257, "Ġorgans": 16613, "ĠShades": 47260, "urdue": 30345, "rane": 14579, "ĠHS": 18070, "ĠTemporary": 46042, "Ġhypothesized": 43714, "Ġinnovate": 47916, "Ġwee": 43671, "ĠFarrell": 37568, "sylv": 9163, "ĠThatcher": 31706, "ctory": 25977, "Ġ1914": 26833, "Christian": 20298, "Ġstressful": 27177, "Ġpercentages": 28071, "Ġdifferent": 1180, "ãĥŃ": 16253, "ĠTea": 15777, "Ġacknow": 5571, "ĠSelection": 29538, "Watch": 10723, "quickShipAvailable": 39753, "Ġsn": 3013, "Finish": 48658, "Public": 15202, "Kim": 26374, "Ġmissing": 4814, "CP": 8697, "News": 9980, "Ġfever": 17372, "Ġ68": 8257, "ĠInt": 2558, "Ġvoc": 12776, "Enh": 35476, "Ġvanity": 39609, "Ġliberalism": 33108, "Ġstabbed": 21512, "Ġdinners": 42541, "ĠLeslie": 26909, "Ġ367": 40884, "ĠSecurity": 4765, "Ġpossessions": 23309, "measures": 47336, "ĠVacc": 31749, "Ġmelee": 16837, "Ġloyal": 9112, "Ġoverlay": 33345, "ĠLaboratories": 46779, "Ġcha": 17792, "Ġlos": 22346, "ĠDexter": 26284, "Ġconsulate": 44369, "BT": 19313, "Ġhurting": 21530, "Ġscaff": 41498, "ĠUm": 21039, "ãĤ§": 24806, "ĠBieber": 42263, "Ġsuperpower": 47481, "align": 31494, "Ġprecision": 15440, "phasis": 28432, "ĠCK": 45233, "Ġcelebrity": 16527, "inch": 8589, "Ġabandoning": 31309, "ĠKobe": 29493, "zu": 27624, "ution": 1009, "ĠAdds": 34333, "memory": 31673, "ĠOrig": 6913, "Chris": 15645, "vised": 16149, "Ġpaired": 20312, "Ġgarn": 36167, "expr": 31937, "flu": 35522, "Ġpoked": 47320, "ĠNets": 27811, "Ġibn": 47160, "Ġscreen": 3159, "ĠBits": 44733, "ĠHers": 28492, "Ġretains": 27452, "Ps": 12016, "Ġredeem": 26509, "Hen": 26055, "opl": 20106, "ague": 2064, "Ġwheelchair": 27181, "ĠCharlottesville": 24756, ",,,,,,,,": 47682, "ĠNOTE": 24550, "YP": 48232, "ĠMBA": 45517, "Ġstorm": 6388, "unia": 39934, "ĠEstimated": 47737, "Ġsmoked": 21603, "ĠPE": 18468, "invest": 24859, "Ġfunction": 2163, "ĠTransition": 40658, "Const": 34184, "Ġrefute": 45071, "ĠParam": 25139, "Ġnas": 25221, "Ġlinux": 32639, "iatus": 34704, "QUI": 43702, "Ġpython": 21015, "ĠUrug": 31021, "Ġwash": 13502, "Ġdoomed": 24312, "Ġmitochondrial": 32873, "Ġblending": 34863, "gorithm": 42289, "Ġdivide": 14083, "Ġdivorced": 25107, "Ġdisturbed": 24069, "Ñ": 141, "Mod": 5841, "ĠATF": 39215, "Ġsummar": 15676, "deck": 35875, "Ġstealth": 19159, "Ġunsurprisingly": 49619, "ilion": 29935, "ĠFut": 24002, "ichever": 22617, "packed": 34860, "471": 38339, "natal": 33150, "Ġprosecutors": 11947, "ĠCork": 25567, "ĠHeart": 8894, "Ġmomentarily": 40957, "Ġspacing": 31050, "ĠDmit": 35438, "ĠTrafford": 41107, "598": 41292, "ĠOverview": 28578, "ĠIn": 554, "Ġvirus": 9471, "Ġfloat": 12178, "ĠAM": 3001, "ĠMobile": 12173, "ĠSpeedway": 46000, "pires": 17833, "culture": 25584, "Ġsnug": 47032, "Ġstrengths": 18929, "ĠAfghan": 6539, "blade": 22500, "Ġtallied": 48729, "Ġrabbi": 47326, "Ġner": 17156, "essions": 6202, "Ġshe": 673, "Ġrarity": 32823, "Front": 25886, "Ġcombating": 40975, "ĠMine": 11517, "Ġteaspoons": 47234, "ĠMaple": 21249, "ĠTub": 42850, "Ġfatally": 27546, "Ġthreatening": 11123, "ETH": 20702, "641": 42759, "Cos": 36734, "ĠAssuming": 33238, "ĠWARN": 42660, "ĠHello": 18435, "Ġstresses": 29787, "LD": 11163, "ĠPlans": 30305, "Ġdiscontent": 39784, "Ġheadaches": 29432, "ĠCecil": 32234, "Editor": 17171, "Ġapt": 15409, "Ġhemp": 28246, "height": 17015, "Vert": 42369, "Ġmodes": 12881, "ĠFraz": 36914, "Writ": 20257, "need": 31227, "Ġcomedian": 23139, "Ġattest": 44477, "Ġtoddler": 30773, "Ġgardens": 25476, "ĠComments": 19502, "oko": 16044, "ETHOD": 36252, "Ġthan": 621, "band": 3903, "ĠProphe": 33360, "ĠRei": 33225, "Ġcritique": 19976, "Ġfermented": 44543, "Ġexcav": 22659, "887": 46660, "ĠSilicon": 18210, "Hur": 42633, "uka": 14852, "Ġshouts": 34757, "Hall": 34194, "Ġdemands": 8665, "ĠJacqu": 44726, "ĠGalileo": 45860, "Ġ1890": 31982, "Ġnominees": 26456, "Season": 18960, "Ġrehears": 28779, "Ġlandsl": 29433, "ĠMajesty": 25788, "Ġparliament": 8540, "Ġcalling": 4585, "auri": 35190, "ĠPanzer": 46294, "ĠChelsea": 12147, "sels": 14002, "ĠMacro": 42755, "insured": 28409, "ĠLiter": 17667, "ĠSyn": 16065, "Ġcontamin": 33554, "ĠBennett": 17468, "ĠClothing": 48921, "ĠPublishers": 43403, "ĠEst": 10062, "ĠChristensen": 49195, "Ġinstituted": 32954, "cup": 25244, "Ġdiving": 23186, "acers": 49908, "Ġbattleground": 35057, "ĠJericho": 47782, "Ġoffers": 4394, "Ġrelaxed": 18397, "Ġballistic": 22681, "Prior": 22442, "Ġseats": 8632, "ĠTiff": 35775, "Ġdes": 748, "Paris": 40313, "Ġsaves": 16031, "Ġmediocre": 29956, "Below": 21106, "ĠKnown": 29454, "BILITIES": 49516, "Ĉ": 196, "ĠAllied": 28234, "ifice": 9680, "Ġmeets": 11185, "ĠAnyone": 17462, "ro": 305, "));": 18125, "Ġdisturb": 17037, "Ġregistry": 20478, ".,": 1539, "ĠSara": 24799, "requently": 37971, "iannopoulos": 36408, "ĠLonely": 46501, "Ġrentals": 39457, "Ġkit": 6220, "Ġambassador": 14791, "Ġunknown": 6439, "Ġsweaty": 47599, "osexual": 8542, "ĠHy": 6707, "Grade": 42233, "ß": 155, "Ġhar": 3971, "ĠYOU": 7013, "Pause": 49991, "ĠEyes": 18301, "ĠFist": 23733, "ĠGibbs": 41071, "Ġsalt": 8268, "iration": 15297, "245": 22995, "ĠBACK": 28767, "075": 46396, "Thomas": 22405, "Ġreduces": 12850, "Ġcoined": 33115, "ĠAngola": 48968, "ĠTot": 20323, "Ġhyd": 7409, "ĠCanaan": 47047, "ubuntu": 32230, "Legend": 21351, "Ġperv": 48435, "ĠSatisf": 48168, "cre": 7513, "ĠDenmark": 16490, "Ġowner": 4870, "uum": 13814, "Ġunavailable": 23485, "ĠSom": 9995, "Ġgener": 1152, "Ġcapturing": 21430, "iotic": 16357, "Ġagriculture": 14510, "Ġ76": 8684, "capitalist": 49970, "ĠAH": 28159, "DCS": 49513, "ĠLal": 36683, "bart": 16575, "ĠOrc": 19083, "ĠDSL": 32643, "ĠBabylon": 28028, "Ġinquired": 45072, "Ġ419": 48475, "/#": 31113, "Ġdistributions": 24570, "Ġtom": 16667, "runtime": 43282, "Ġrefuses": 17567, "Ġtruck": 7779, "Ġem": 795, "marine": 42380, "Il": 33666, "anic": 26277, "ĠFCC": 15915, "ĠAbility": 20737, "Ġallies": 7681, "Ġcurved": 26929, "Ġreader": 9173, "ĠMech": 18202, "GN": 16630, "AT": 1404, "ĠCumber": 38732, "Ġwidget": 26295, "Ġblaster": 48131, "ĠMeh": 37070, "Ġbaggage": 30466, "Ġrehe": 22891, "ĠAddiction": 40187, "Ġfirms": 9611, "Ġtint": 34791, "Mi": 41541, "Ġvibrations": 38071, "Elizabeth": 43568, "¶ħ": 41678, "Ġmaj": 16486, "Ġtink": 44569, "ĠHK": 31440, "Ġspots": 10222, "internal": 32538, "rust": 11469, "Ġtransmitter": 35099, "Ġcher": 21382, "Ġdissatisfaction": 41393, "attacks": 38458, "alog": 11794, "Ġfiber": 13608, "Ġmaster": 4958, "Ġemphatically": 49206, "UF": 36820, "ĠDiana": 25752, "oho": 40950, "xious": 48392, "ombs": 33273, "ĠNewsweek": 39594, "ĠCarbuncle": 35818, "ĠTT": 26653, "ä¸Ń": 40792, "Ġparach": 31852, "Ġembarrassing": 18997, "Ġweddings": 37377, "Ġbitten": 38854, "Ġmarker": 18364, "Ġbright": 6016, "Ġanswering": 18877, "AGES": 25552, "ĠVolt": 22702, "Ġfriendly": 8030, "ĠDegree": 34486, "ĠBridge": 10290, "essor": 5987, "zel": 17396, "595": 35124, "Ġrac": 3444, "Ġdetailed": 6496, "Ġimprint": 29122, "Ġaddressed": 9469, "Pack": 11869, "Ġpromotes": 21068, "ĠPaladin": 26693, "ĠBowser": 36925, "changed": 40985, "Ġinternally": 20947, "ta": 8326, "ĠMegan": 27616, "Ġ283": 42032, "ĠMSI": 30781, "Ġplayer": 2137, "ĠFemale": 15396, "ĠMÃ©": 43579, "Ġhaircut": 45548, "Ġitching": 48140, "key": 2539, "orrow": 6254, "arent": 1580, "Ġstatist": 10118, "ĠAlternate": 42400, "Ġregiment": 34792, "Ġmodel": 2746, "167": 21940, "Ġflourishing": 46240, "Ġwriters": 8786, "ĠMemphis": 20522, "Ġbargaining": 23189, "ĠKats": 47244, "Ġentities": 12066, "cko": 37549, "Ġexert": 17596, "ĠSing": 5573, "ERT": 17395, "Ġrounding": 38185, "Ġprosecuted": 23086, "ĠLiam": 31684, "lin": 2815, "Ġshoes": 10012, "Ġinch": 11111, "umps": 8142, "Ġproducers": 11408, "Ġ++": 19969, "ĠNirvana": 49923, "Ġcargo": 15892, "Ġquarter": 3860, "Ġteasp": 18945, "ĠIntegration": 38410, "Ġhug": 16225, "Ġneighbours": 23788, "Ġcounselors": 44135, "Ġmaximize": 20487, "avoid": 27080, "Ġoats": 47009, "Ġimbalance": 32556, "ologne": 30520, "onia": 11339, "Ġproductions": 32260, "Split": 41205, "Ġribs": 27105, "ĠMIN": 20625, "planet": 47427, ":(": 37498, "ĠSuff": 24974, "formance": 10367, "Ġcanceled": 19994, "mA": 42646, "Ġmystery": 10715, "Ġremnants": 30468, "hammer": 17980, "ĠJohns": 25824, "ĠMethodist": 38029, "Ġ[": 685, "Ġstroke": 14000, "Ġvolumes": 15343, "Delta": 42430, "Ġacknowledges": 23477, "Ġstabilize": 32411, "ĠXin": 25426, "essler": 33730, "ĠKidd": 40144, "Ġinstructed": 17767, "Ġscripture": 36739, "Ġ2011": 2813, "Ġcontradicted": 44853, "Ġintroducing": 16118, "ouf": 37116, "ĠAF": 12341, "Ġkin": 18967, "Ġamb": 4915, "ISE": 24352, "ĠAdviser": 47661, "directory": 34945, "Ġrout": 3441, "ĠPrim": 11460, "adjusted": 29117, "Ġimmersed": 37970, "ĠLoan": 32314, "Ġrecycling": 25914, "ĠWife": 34188, "ĠYanuk": 37068, "ford": 3841, "ĠBaghd": 18706, "Ġformulas": 32126, "ĠMcKay": 37946, "ĠAssociated": 10575, "ĠMaher": 38137, "Ġsafest": 33630, "Ġenlisted": 30166, "ons": 684, "HAM": 33363, "Ch": 1925, "ĠSuzanne": 45587, "Ġforestry": 37683, "ĠKushner": 24743, "Ġblurry": 44701, "ĠAccess": 8798, "ĠGPS": 15472, "Ġgenitals": 35853, "Ġpresident": 1893, "Spawn": 49855, "anking": 15230, "ĠVit": 18271, "odge": 9728, "health": 13948, "estation": 27364, "Ġresponsibility": 5798, "Ġbattling": 20581, "ĠMcCain": 14264, "managed": 39935, "ĠCandle": 44973, "Sty": 18716, "elect": 9509, "Ġdisparity": 30137, "Ġabyss": 37678, "Ġbaseball": 9283, "Ġaffirmed": 31036, "Ġfilament": 46538, "url": 6371, "ĠNebraska": 18329, "ĠRadiant": 34145, "BU": 19499, "Ġtranssexual": 41482, "aring": 1723, "Ġmarked": 7498, "Ġunp": 8593, "ĠCover": 17546, "Ġprizes": 21740, "Ġnutrients": 20901, "ĠClassics": 40184, "Ġpopped": 22928, "Ġjournalist": 10099, "ep": 538, "iana": 7484, "Ġdelim": 46728, "Ġ1100": 36566, "Ġpond": 16723, "Ġfloor": 4314, "Ġpropag": 8928, "Ġescaped": 13537, "Ġunres": 36501, "Ġkisses": 36544, "ĠCatholics": 21374, "graded": 21791, "Ġintegrity": 11540, "ETS": 32716, "ĠClean": 5985, "vae": 33353, "Ġinsign": 24191, "aney": 22297, "Ġdepict": 19583, "ĠTrans": 3602, "Gl": 9861, "Ġ\\(": 16792, "Ġskin": 4168, "Ġformidable": 24599, "aunder": 21118, "Ġbuys": 24779, "ĠBav": 37313, "ĠCost": 6446, "Ġnearest": 16936, "ĠFighting": 19098, "iggurat": 44557, "ĠSAS": 35516, "inational": 26201, "ĠOutbreak": 49139, "ĠMighty": 25532, "ĠShowdown": 46645, "ĠSuicide": 27695, "Ġfeminist": 14314, "uff": 1648, "ĠDame": 20377, "nl": 21283, "ĠChronicle": 14160, "ocese": 31292, "Ġ1400": 36641, "defined": 23211, "croft": 36714, "Ġcommunists": 40938, "Ġcorrespondence": 22440, "Tar": 47079, "ritic": 46015, "ĠBes": 30837, "Ġriding": 10311, "ĠOG": 34498, "ĠBulgar": 26163, "etime": 8079, "ĠRuby": 10888, "276": 27988, "ĠIntroduction": 22395, "ĠjQuery": 37420, "ĠStorage": 20514, "Ġcurrency": 7395, "consider": 44353, "non": 13159, "request": 25927, "Ġcommunal": 26757, "Ġphotographic": 35788, "uty": 3935, "Ġrecurrent": 42465, "lb": 23160, "DoS": 46498, "Ġfentanyl": 47804, "contained": 45964, "significant": 36591, "ĠCardinal": 25564, "Ġretaliate": 50081, "windows": 28457, "ĠFinding": 27063, "7601": 42752, "Ġheartbreaking": 37154, "native": 30191, "Ġimmersive": 31403, "Ġcapacitor": 43212, "Ġphones": 9512, "ĠPowder": 33688, "throw": 16939, "Ġ238": 32544, "656": 37466, "ĠTJ": 41852, "Per": 5990, "console": 41947, "Ġturbo": 29292, "INGTON": 17480, "Myth": 41444, "Ġtails": 30514, "igans": 34090, "driven": 15808, "Ġschools": 4266, "Ġbrink": 29585, "Ġcavalry": 30891, "1999": 18946, "Have": 11980, "missive": 33532, "fix": 13049, "ĠSahara": 46882, "Tile": 35103, "Ġfri": 32803, "Mer": 13102, "eton": 18483, "ished": 1348, "Ġboss": 6478, "wl": 40989, "Ġworkaround": 46513, "Ġcob": 22843, "Ġconfid": 47830, "Ġ366": 44856, "ĠSachs": 25158, "Hispanic": 43830, "Ws": 46456, "ĠXD": 46537, "Ġforensic": 23953, "ĠRoz": 41334, "Ġpatches": 16082, "Ġstudent": 3710, "ĠAnnotations": 47939, "Ġpioneering": 36304, "itness": 3659, "Jacob": 46751, "Ġconserv": 4055, "ĠBlade": 11671, "Ġcreation": 6282, "Ġscent": 21212, "ĠAristotle": 34067, "2000": 11024, "ĠKul": 50024, "apsed": 28361, "roller": 10646, "odan": 45561, "Ġre": 302, "Ġtf": 48700, "Ġwarning": 6509, "ĠLabyrinth": 28561, "ĠJer": 4230, "occupied": 28756, "sem": 43616, "Fra": 49562, "Fill": 33762, "Ġbatch": 15458, "iosyncr": 48702, "ĠCummings": 38154, "ĠCD": 6458, "Ġbehaves": 39341, "ĠCut": 9712, "ĠCultural": 23897, "ĠPell": 43113, "Ġnumerous": 6409, "Ġinsanely": 40848, "episode": 38668, "Ġextract": 7925, "Ġss": 37786, "ĠDebate": 41029, "Ġchatting": 32046, "Ġspills": 42123, "ĠFiat": 23327, "urous": 29277, "ĠDamascus": 21028, "ÑĢ": 21169, "äºĶ": 49390, "cipl": 6671, "Ġtaxed": 31075, "Ġeven": 772, "uably": 14632, "Ġsandwiches": 29777, "ĠHPV": 32395, "tile": 40927, "ĠSurge": 46774, "Ġlethal": 17769, "ĠAntarctic": 33149, "Ġmassive": 4858, "Ġdoses": 16376, "ractical": 36112, "Nob": 21191, "hari": 49573, "Ġmole": 9411, "Ġanat": 20076, "Case": 20448, "ĠLOVE": 27889, "uh": 7456, "Ġencoded": 30240, "atsu": 19231, "Ġsilent": 10574, "ĠPunjab": 33328, "Ġorche": 17771, "peria": 38032, "ĠCoffin": 44159, "Administ": 41862, "Ġpoets": 39939, "Password": 35215, "ĠProfile": 13118, "Ġillusion": 17878, "ook": 566, "Ġacupuncture": 48647, "Ġcub": 13617, "ĠBis": 38045, "Angel": 33246, "Something": 22210, "ĠTHREE": 48697, "558": 40486, "Ġaroused": 38832, "ĠSidney": 35727, "ĠBarrier": 32804, "Ġintimid": 12895, "Ġhamb": 41478, "Ġcath": 32171, "Ġfundamentals": 33099, "owship": 23473, "Ġreferenced": 20717, "Ġdeclarations": 31713, "Solution": 46344, "ĠSpurs": 18353, "Ġscrape": 42778, "groups": 24432, "ĠDog": 8532, "Ġweep": 49671, "Ġperiod": 2278, "Ġallergic": 31856, "Ġsecession": 43314, "707": 24038, "lore": 31131, "Ġhighlighting": 21292, "ocate": 13369, "ans": 504, "clinical": 47367, "Ġhang": 8181, "Ġide": 1405, "Ġapproximately": 6702, "Flor": 26953, "ĠShots": 42162, "ĠÂ¯": 49660, "Ġstalled": 29759, "Ġsens": 3054, "ĠGeForce": 12975, "ò": 174, "Sanders": 26747, "Ġtrailing": 25462, "ĠWS": 25290, "ĠYosemite": 43188, "esque": 28939, "MIC": 49884, "idental": 35182, "Ġcardinal": 38691, "ĠCooperation": 35047, "ĠHeroic": 34364, "ranging": 32319, "Ġdiseases": 10040, "ĠBane": 38112, "ĠTwo": 4930, "ĠTrap": 21914, "Ġturf": 29553, "Ġsubscription": 14569, "Ġdividends": 26360, "Ġnob": 31801, "ĠFoot": 7870, "Ġsugar": 7543, "Ġconsultations": 42052, "ãĤ¦ãĤ¹": 34103, "ĠVegas": 9621, "ĠVu": 35816, "ĠPhant": 38699, "mask": 27932, "ĠSCP": 17527, "ĠMSG": 49064, "Ġgates": 17435, "Ġsan": 5336, "arded": 10676, "ĠPas": 17454, "awan": 43004, "ĠMany": 4650, "ĠExtra": 17221, "Ġsqor": 36938, "Ġcooper": 6788, "AA": 3838, "Ġpane": 37218, "yrus": 21180, "ĠDecre": 36400, "Ġconver": 6718, "Ġbonus": 7202, "ĠShowtime": 47908, "Ġnegro": 47255, "Ġdemonstrate": 10176, "olated": 50027, "bn": 9374, "ĠDesktop": 27850, "igated": 26963, "hor": 17899, "Ġnavigating": 35210, "ĠSci": 10286, "Ġneighbourhoods": 45221, "Ġvent": 7435, "Ġsatur": 17373, "ĠPurs": 34089, "Layout": 32517, "ĠOlympic": 11514, "Ġseeming": 31792, "################": 14468, "united": 41187, "Ġhemorrh": 42203, "acre": 12345, "phen": 31024, "ĠMek": 42859, "alone": 17749, "Ġconvention": 9831, "sid": 30255, "Ġincapable": 23402, "Ġacknowledged": 10810, "Ġnu": 14364, "ĠJuven": 48113, "jan": 13881, "ability": 1799, "ĠLine": 6910, "Ġinstitutions": 6712, "ĠDeV": 29619, "Ø§ÙĦ": 23525, "dress": 49380, "irlfriend": 9872, "Ġpress": 1803, "Ġanticipate": 23794, "Ġundis": 24149, "ĠHawth": 41457, "terms": 38707, "Ġfeeding": 13017, "Ġtalk": 1561, "ton": 1122, "ĠAnnie": 25860, "ĠPumpkin": 36724, "ãĥ¡": 26998, "Ġmilitias": 28195, "ĠLAPD": 44776, "Ġcorps": 16812, "Ġconsultancy": 47827, "uberty": 34237, "Ġaccessibility": 28969, "Ġanyways": 32845, "ĠDome": 31390, "AK": 10206, "Ġappointments": 23976, "Ġinvisible": 14836, "Ġ137": 21643, "ĠBalkans": 48100, "ĠRusty": 47449, "Ġabund": 12467, "Ġdiscount": 9780, "levard": 22123, "ĠMER": 34482, "Ġreconc": 19331, "Ġaiding": 37221, "Ġanecd": 22077, "Ġsubject": 2426, "okemon": 12717, "urat": 39928, "ĠVarious": 26386, "Ġredundancy": 49052, "aples": 28624, "ĠUCS": 49553, "ĠElves": 35172, "obj": 26801, "ĠAlfred": 22044, "Ġguidance": 11154, "Introdu": 15005, "ĠHue": 31788, "Ġinconsist": 26104, "Ġquitting": 34161, "Ġmodified": 9518, "Ġpatrol": 13969, "Beast": 41490, "Ġcherish": 48303, "Ġendangered": 22700, "Ġpedestrian": 22382, "OLD": 15173, "ĠCombined": 32028, "shots": 20910, "Ġsupplier": 22693, "Ġestablishes": 30742, "Ġillustration": 20936, "hai": 44488, "ĠZub": 47828, "Ġcloud": 6279, "ãĤ¿": 23376, "ĠPlayboy": 43995, "Ġcrave": 44434, "ilater": 38601, "Ġmanufact": 4011, "Spider": 41294, "ĠUbuntu": 14949, "Ġdoesnt": 46701, "Ġarchitectural": 27070, "Ġdoctoral": 40995, "Ġholster": 43604, "Ġgangs": 22561, "672": 43864, "olar": 6192, "Wolf": 32069, "Ġpositioning": 22097, "Ġranking": 12759, "ĠJob": 15768, "oni": 14651, "1024": 35500, "ĠMelanie": 49872, "assisted": 42191, "Ġfounding": 16636, "Ġforecasts": 26119, "alted": 29590, "pen": 3617, "Ġ145": 20299, "obook": 49776, "apple": 18040, "armed": 12026, "Ġricher": 26192, "dial": 38969, "Ġselection": 6356, "ĠAck": 36031, "2015": 4626, "vill": 41082, "ĠGale": 36483, "Ġprecisely": 10582, "Ġnewcomer": 41422, "violence": 37502, "ĠProt": 5038, "Ġhorses": 14260, "Ġdogma": 40937, "apeake": 49528, "Shares": 43566, "Ġrichest": 24348, "ĠSoph": 20367, "Ġdeg": 3396, "ĠCorrect": 22941, "Ġrepressive": 44430, "Ġbrains": 14290, "STE": 30516, "ĠGeological": 34246, "zhen": 46732, "Prop": 24331, "Ġultimate": 8713, "Ġbrick": 17214, "Ġcoy": 34003, "Ġsergeant": 33861, "ĠHighest": 41864, "inse": 38521, "n": 77, "ĠESPN": 10409, "ĠSc": 1446, "Ġdeck": 6203, "Ġ1953": 24217, "ĠFeldman": 45498, "Ġeveryone": 2506, "482": 40149, "Grand": 23581, "Unlike": 18521, "Ġtrilogy": 26298, "Ġproclaimed": 25546, "ĠPH": 9370, "ĠContest": 27297, "Ġend": 886, "Ġæľ": 42164, "Ġautumn": 23608, "Buffer": 28632, "ĠBounty": 38166, "ĠInvasion": 25484, "ĠOur": 3954, "Ġmarvel": 22672, "ĠSnyder": 22543, "Ġhailed": 27052, "ĠReverend": 47042, "ĠFre": 4848, "Ġabundant": 23263, "ĠNeg": 13496, "Ġwanted": 2227, "ĠMAY": 26720, "Ġwolf": 17481, "ĠSchools": 20357, "rays": 20477, "ĠQuincy": 46884, "ĠPike": 29539, "ĠAX": 43051, "ĠMTV": 31214, "ĠTimothy": 22283, "Ġtransmissions": 45649, "ĠGideon": 46606, "Ġenlarg": 26537, "Ġensuring": 13359, "vol": 10396, "ĠClose": 13872, "ĠWATCH": 16518, "These": 4711, "ĠIron": 7931, "eda": 18082, "Ġproport": 7601, "Ġunclear": 10061, "Ġnerv": 8660, "ACK": 8120, "itted": 2175, "Ġsymbols": 14354, "ĠDMCA": 49648, "setting": 33990, "âĹ¼": 48366, "essel": 7878, "Ġtherape": 20094, "protect": 35499, "èª": 45739, "ĠTort": 28467, "ĠCharl": 6258, "477": 32883, "ĠSurvivor": 23740, "AFP": 17449, "olt": 5978, "Ġmeaningful": 11570, "ĠLent": 43751, "ĠTelecommunications": 48667, "Ġfluoride": 40311, "489": 35890, ":#": 43922, "Throughout": 26797, "Ġlogin": 17594, "ĠGenerator": 35986, "include": 17256, "Ġenthus": 8485, "acey": 25415, "Ġexecutable": 28883, "Ö": 146, "ĠFOX": 19912, "776": 39509, "pas": 44429, "ĠGam": 14014, "ĠPacers": 31637, "orbit": 42594, "Ġhighlights": 11330, "othy": 14863, "601": 41706, "ĠSchwarz": 34835, "Ġconcerted": 39074, "Ġillustrations": 27128, "ĠAttend": 46502, "Ġlaborers": 41075, "Hal": 40202, "Ġinactive": 28621, "Image": 5159, "ĠMort": 10788, "Ġsay": 910, "nih": 37373, "CLASSIFIED": 45449, "ĠJeff": 5502, "ceans": 19961, "forum": 27302, "Ġsatellites": 20372, "Often": 37288, "icates": 16856, "ĠLy": 9334, "Ġslows": 33019, "rophe": 22599, "Ġsexes": 32487, "ĠSettings": 16163, "ĠWhedon": 49891, "beaut": 40544, "ĠHawks": 23445, "ĠLanc": 21534, "ĠFramework": 25161, "Ġracial": 8425, "ĠWhitney": 34701, "vals": 12786, "Ġacclaimed": 27023, "Kenn": 39324, "Ġstarvation": 32143, "ĠHorn": 13549, "Ġcheating": 21608, "SN": 15571, "Ġcans": 23916, "Ġrotation": 13179, "Ġ:=": 19039, "pta": 32283, "Ġscared": 12008, "Ġanarchism": 41661, "Ġwallet": 13008, "Ġlayoffs": 41965, "another": 29214, "concert": 48415, "Ġgau": 14885, "ĠManual": 17969, "avored": 48275, "rator": 12392, "Ġrecipient": 17800, "ret": 1186, "Ġconsult": 5725, "Ġfielded": 49407, "Chall": 41812, "Ġdra": 28841, "swers": 37848, "worst": 41430, "hold": 2946, "ÃĥÃĤ": 5808, "Ġclearance": 19745, "Ġpolit": 1408, "Ġgathering": 11228, "Ġvacation": 14600, "ifestyle": 42004, "lay": 10724, "ĠHon": 8835, "Authorities": 28705, "ãĥ©": 9263, "ĠDLC": 18068, "Ġlyrics": 15844, "ĠAy": 13709, "Ġsir": 15967, "enance": 36368, "ĠLikely": 45974, "tein": 22006, "Program": 15167, "Ġoste": 32674, "Ġ770": 44586, "Ġmerged": 23791, "Unity": 35955, "alyst": 21470, "Ġ&&": 11405, "ionics": 49900, "Ġbliss": 30533, "Ġriches": 35000, "Ġsensitive": 8564, "ĠRoller": 24945, "fortune": 37359, "ĠFUCK": 30998, "Ġding": 44852, "ĠSkin": 17847, "Ġcar": 1097, "fs": 9501, "kiss": 41304, "Ġpaying": 5989, "Ġti": 46668, "Ġoutside": 2354, "untu": 11157, "ĠFounding": 44593, "Ġweapon": 4282, "Ġshook": 14682, "ĠRandy": 21248, "gets": 11407, "Ġrestart": 15765, "unctions": 46797, "equ": 4853, "Ġt": 256, "oney": 1419, "Ġtastes": 18221, "Ġquotas": 38736, "oscope": 40326, "Howard": 32434, "ĠStock": 10500, "Ġtranslated": 14251, "raped": 31951, "registered": 33736, "Ġ970": 40463, "ĠCompton": 47062, "imb": 14107, "Ġemployment": 7184, "ET": 2767, "Ġarchived": 33962, "ĠBTC": 14503, "Ġescalate": 38302, "ĠLimits": 44943, "Ġdart": 35970, "Ġlaying": 16299, "Ġcare": 1337, "Ġbelonging": 16686, "doc": 15390, "Ġtreats": 18432, "colour": 49903, "jected": 35408, "Ġbilateral": 24537, "ython": 7535, "Ġasked": 1965, "Ġsomew": 4209, "ĠWriters": 37732, "Ġstatistical": 13905, "Ġ228": 29041, "Ġhamm": 25755, "afer": 34659, "we": 732, "ãĥĨãĤ£": 44431, "ĠDani": 22254, "ĠPAN": 40468, "Ġadvice": 5608, "nature": 21353, "ampire": 13577, "Ġaddr": 37817, "Ġsleeper": 46594, "ĠThomson": 32425, "ĠDrive": 9974, "Ġcareg": 32386, "Ġtease": 34691, "Ġ601": 49231, "ĠRuff": 42409, "Ġabortions": 19985, "Pont": 48039, "Ġpersuaded": 25562, "water": 7050, "ĠANN": 40126, "ĠFancy": 49848, "Ġseriously": 6411, "ĠIndust": 9054, "Ġfocus": 2962, "ĠGiving": 35603, "ĠAnt": 3738, "Reporting": 42159, "told": 44040, "Ġcongregation": 28862, "fecture": 36637, "324": 33916, "Ġnetworking": 19140, "ĠsrfAttach": 43065, "Polit": 39866, "Ġperfection": 20187, "\"},{\"": 11919, "Ġinsight": 11281, "Ġtighter": 28619, "Ġcort": 12794, "Web": 13908, "ĠChuck": 14663, "ĠWhites": 29290, "PET": 47731, "ĠAffairs": 10665, "Ġunleash": 33502, "Ġabolished": 32424, "Ġ***": 17202, "2500": 44688, "cry": 20470, "?\",": 35379, "Ġbung": 43974, "Ġ108": 15495, "Ġfaculty": 12829, "ĠTimberwolves": 48983, "hart": 18647, "ĠDan": 6035, "notations": 30078, "ASC": 42643, "ĠMyst": 32347, "ĠFiction": 26756, "Ġoblig": 6263, "ĠPoke": 41163, "sorry": 41599, "iii": 15479, "ifted": 21715, "Ġflashed": 30050, "ĠPull": 21429, "bek": 47083, "Ġcontinu": 11143, "iction": 2867, "ĠTrooper": 47438, "knife": 48810, "Ġmill": 3939, "Ġintegration": 11812, "arted": 19112, "hat": 5183, "olen": 8622, "Ġfel": 10756, "1998": 21113, "ĠHighway": 14914, "ensitivity": 40545, "From": 4863, "Crash": 47598, "dll": 12736, "ĠDebt": 30319, "ĠYan": 10642, "ĠAT": 5161, "BBC": 33833, "cham": 49869, "Ġalk": 32915, "Ġ41": 6073, "Ġmanslaughter": 35083, "ö": 178, "ãĥīãĥ©ãĤ´ãĥ³": 24731, "year": 1941, "Ġ269": 38249, "Ġprowess": 30721, "Ġwhipped": 30712, "ãĤº": 37426, "Ġredirected": 45158, "Ġneighbouring": 29272, "anka": 15927, "Ġtyranny": 29977, "Ġair": 1633, "rians": 19151, "Ġcriminality": 49950, "actually": 37739, "Ġcornerback": 26683, "ĠDouble": 11198, "Beg": 24586, "Å¡": 32790, "ĠNare": 27236, "Ġlamps": 32209, "Ġreel": 35672, "Ġfacet": 39144, "opens": 44813, "Ġpersistence": 30802, "Ġmar": 1667, "EMBER": 28952, "Ġstamp": 17977, "ĠSundays": 32714, "Nine": 37603, "Ġâ": 2343, "iners": 21257, "Ġprincip": 26303, "Ġclassrooms": 32579, "said": 30079, "Particip": 34363, "Ġcaus": 26846, "ilial": 43475, "Ġposts": 6851, "ute": 1133, "Ġmiscon": 27849, "Ġsuscept": 18163, "901": 46815, "ĠLetter": 18121, "ĠArmed": 16657, "ĠSix": 9699, "cients": 35611, "Ġdystop": 39227, "ĠServices": 6168, "phis": 18691, "Ġpedoph": 27706, "alien": 42690, "ten": 1452, "Ġepisodes": 8640, "ĠStream": 13860, "illions": 40083, "Ġinquest": 48314, "ODUCT": 28644, "ĠAlice": 14862, "460": 34716, "Ġperenn": 34893, "ĠBeg": 47479, "Ġracing": 11717, "ĠKlu": 41269, "Ġdiscussions": 9984, "Time": 7575, "uben": 44636, "Ġorganism": 26433, "RIP": 32618, "Ġconnectivity": 19843, "venth": 20987, "alam": 44949, "ĠSponsor": 23389, "Ġconspic": 30034, ".............": 44274, "uit": 5013, "Ġattendees": 21736, "ph": 746, "51": 4349, "Ġprism": 46475, "ĠUt": 7273, "Ġallowance": 24930, "found": 9275, "Ġ303": 30727, "================================================================": 23926, "uterte": 23314, "ç·": 45784, "Ġlodged": 31984, "ĠTakes": 33687, "Ġlegislature": 15928, "othing": 24834, "mark": 4102, "ĠOpera": 26049, "chart": 40926, "Catholic": 48919, "]-": 45297, "DAY": 26442, "ĠBuckingham": 47538, "roll": 2487, "Ġtakeoff": 45306, "Ġhorror": 9961, "Ġsympath": 23860, "Ġwaiver": 23804, "õ": 177, "Äģ": 10235, "Ġassorted": 46603, "Ġreassure": 37762, "ppers": 11799, "Ġtracker": 30013, "Ġmodular": 26507, "var": 7785, "Ġinformed": 7981, "Ġsurgeries": 33624, "Ġalarmed": 32064, "ÃĥÃĤÃĥÃĤÃĥÃĤÃĥÃĤÃĥÃĤÃĥÃĤÃĥÃĤÃĥÃĤÃĥÃĤÃĥÃĤÃĥÃĤÃĥÃĤÃĥÃĤÃĥÃĤÃĥÃĤÃĥÃĤ": 23090, "Ġmagnificent": 25023, "iscover": 29392, "ĠJesse": 18033, "Ġdudes": 34578, "ĠÅ": 25370, "Ġking": 5822, "bury": 10711, "ACT": 10659, "ĠDownloads": 50093, "uzz": 4715, "oen": 6571, "Ġcouch": 18507, "ĠInitially": 30900, "Ġ700": 13037, "Ġasync": 30351, "Ġgladly": 35092, "Ġconting": 17982, "********": 4557, "âĤ¬": 26391, "Ġdemand": 3512, "atis": 37749, "389": 29769, "Ġneg": 2469, "Ġgeo": 40087, "oggles": 48549, "Ġhoped": 10719, "ãģĹ": 22180, "Ġadminist": 2719, "å°": 22887, "Ge": 10082, "????????": 35709, "But": 1537, "Aut": 16541, "any": 1092, "Ġdenomination": 47491, "kB": 38841, "ĠReplace": 40177, "ĠMillenn": 19007, "Ray": 19591, "Ġcrop": 13833, "728": 48524, "Ġcreek": 39459, "ĠPayment": 28784, "Ġcaptives": 46522, "!": 0, "gue": 18701, "surface": 42029, "×ŀ": 49168, "ĠPharm": 19234, "ĠCrus": 15170, "Ġdeath": 1918, "anwhile": 6710, "ĠKingston": 34612, "nell": 10076, "uu": 12303, "Ġsixteen": 27913, "Ġbetrayal": 29355, "ĠÃ©": 38251, "Ġrevolutions": 37888, "ĠProposition": 44056, "drops": 49253, "ĠAug": 2447, "Ġbinding": 12765, "raw": 1831, "ĠHat": 10983, "ĠWinners": 42754, "ĠRhode": 24545, "ĠResource": 20857, "Ġtransformer": 47385, "Ġword": 1573, "---------------": 24305, "Ġdye": 30121, "Ġpursue": 10660, "ĠBashar": 24463, "ĠAval": 23587, "Ġuncontroll": 39483, "bomb": 27657, "itt": 715, "Ġpanc": 22154, "ĠBeetle": 47464, "atherine": 15289, "xus": 40832, "portation": 10189, "interstitial": 29446, "Wednesday": 27150, "Ġtapping": 24435, "ĠNorton": 30722, "Ġapes": 44621, "haar": 42948, "uming": 12595, "Ġprospective": 17530, "ĠPhi": 47256, "Ġresusc": 48636, "Ġpeppers": 31804, "Ġindef": 16536, "%).": 18823, "Ġthefts": 49980, "Ġminim": 10356, "ĠUltron": 46315, "ĠRa": 7567, "ĠGNOME": 40339, "ĠThumbnails": 28924, "Ġpoliceman": 32166, "OURCE": 31033, "Plot": 43328, "iversary": 9023, "ĠBenedict": 28697, "GER": 30373, "rocal": 43270, "Ġfertilizer": 37113, "started": 46981, "ĠStarg": 44393, "Ġbat": 7365, "grave": 41711, "Ġtoppled": 48757, "ĠBu": 9842, "Ġseldom": 25129, "ĠRoberts": 10918, "Ġcriminal": 4301, "SK": 18831, "Ġled": 2957, "RFC": 41150, "ĠVick": 33347, "Ġreprim": 41929, "ĠCouch": 48225, "Ġregardless": 7692, "Ġsubsc": 5294, "centered": 38050, "ĠLegs": 49379, "Ġhunting": 10988, "Ġcough": 22094, "ĠModerate": 43668, "ĠmacOS": 40017, "cho": 6679, "ĠIng": 17589, "Ġemployee": 6538, "Ġnonviolent": 42582, "local": 12001, "Ġdeter": 2206, "lag": 30909, "æł": 43718, "Ġtcp": 48265, "Sym": 43094, "ĠIre": 7181, "ĠVenezuelan": 34497, "set": 2617, "688": 34427, "cean": 5829, "12": 1065, "ĠControls": 36357, "ĠDwar": 21469, "antine": 29003, "Excellent": 45675, "Ġdraconian": 33483, "Ġinsights": 17218, "Ġlightning": 14357, "Ġsuccess": 1943, "Ġphysician": 14325, "mingham": 17737, "Ġmarginally": 44108, "Ġborderline": 38422, "ĠReds": 14703, "uristic": 27915, "Ġbedrooms": 38529, "oos": 16426, "ĠJem": 48199, "scale": 9888, "Ġsourced": 18229, "column": 28665, "SIM": 48913, "sters": 5937, "mill": 17805, "Win": 16643, "Ġcommunication": 6946, "Ġannoyance": 38650, "Ġovertly": 45118, "Ġperforms": 17706, "Ġcope": 19271, "Ġestates": 42252, "Ġprofile": 7034, "Ġpenetrating": 41456, "ĠRaleigh": 34520, "ĊĊ": 628, "Ġappeals": 15192, "Ġcaste": 30747, "Ġ104": 14436, "Ġtee": 30479, "Ġquieter": 43880, "ĠShel": 15325, "Ġwithheld": 31453, "rat": 10366, "ĠPD": 14340, "Ġpooled": 44762, "Full": 13295, "Ġdevoid": 34065, "issance": 16419, "had": 18108, "acl": 37779, "ĠOC": 24775, "http": 4023, "Ġgarbage": 15413, "Ġholding": 4769, "amphetamine": 31262, "Ġtattoo": 18785, "ificent": 21559, "ĠMerch": 34414, "ĠCreatures": 34539, "Ġmarathon": 22336, "356": 32066, "JUST": 25008, "Ġmism": 32691, "gencies": 33333, "Ġlofty": 37248, "anges": 6231, "Ġmythical": 37071, "Ġwretched": 41857, "odox": 11430, "ĠREAD": 20832, "Ġmanifold": 48048, "ĠJesuit": 50190, "Ġunreasonable": 24673, "Ġhold": 1745, "Ġalign": 10548, "Ġ*": 1635, "ĠGovernments": 40343, "PHOTOS": 42709, "Application": 23416, "ĠRevelation": 33722, "Ġblocked": 10226, "pressed": 45477, "ĠNeal": 29189, "Ġmoratorium": 41772, "zip": 13344, "Ġsold": 2702, "ĠSomerset": 46123, "ĠHar": 2113, "Legendary": 24524, "Ġbicycl": 48094, "Anything": 40028, "Ġshorth": 39147, "icity": 8467, "ĠHEAD": 39837, "ĠBarcelona": 15142, "Ġshepherd": 46721, "Talking": 45904, "ilic": 41896, "Ġripping": 34759, "Qaida": 41225, "Ġdisl": 19621, "ĠCatholic": 7835, "iman": 24086, "ĠErit": 43349, "plugin": 33803, "Ġmummy": 38567, "ĠDempsey": 41994, "Ġnuanced": 34150, "font": 10331, "Ġenchanted": 42282, "Ġslap": 23905, "erness": 17447, "Ġelves": 31959, "ĠMinneapolis": 20455, "Ġdownwards": 44890, "Integ": 34500, "Contact": 17829, "Ġpercept": 34953, "pecting": 35570, "ĠCanucks": 31252, "points": 13033, "ĠTV": 3195, "ĠHawkins": 32534, "ĠSana": 44500, "nton": 28936, "reenshots": 39551, "Ġmoss": 42853, "ĠLimbaugh": 43306, "oters": 26008, "inite": 9504, "ĠName": 6530, "Ġentire": 2104, "Ġindebted": 37816, "Ġdirectors": 13445, "Ġpopulated": 22331, "ĠWalker": 10120, "Ġbailed": 47739, "Ġ2021": 33448, "Ð¾": 15166, "aked": 4335, "Ġstrictly": 14084, "Ġclosed": 4838, "Jere": 31579, "Ġ326": 40660, "ittance": 47912, "ĠMMR": 41362, "ĠRN": 43112, "Ġwrought": 38733, "ĠBerm": 36967, "ĠOr": 1471, "edy": 4716, "ĠMarc": 13067, "ĠCa": 6488, "Ġvents": 42777, "ĠCPUs": 32340, "ĠGenerally": 23904, "Ġlegend": 8177, "ĠVanguard": 31507, "ĠSven": 44611, "ĠGingrich": 29855, "Ġsands": 30959, "Ġ\"(": 30629, "tering": 20212, "ĠAur": 15412, "Ġinfringement": 23059, "ĠHW": 44884, "Ġprestigious": 23566, "Ġiconic": 14133, "ĠEQU": 46886, "Ġsaddened": 40434, "stuff": 41094, "802": 30863, "uddle": 24500, "ordon": 9999, "Ġnearer": 40671, "aer": 25534, "ĠOkinawa": 47221, "ĠChero": 37156, "ĠNearly": 21233, "Ġbusinessman": 19834, "Ġtells": 4952, "Ġ-------": 35656, "ĠCAM": 32421, "Ġ1888": 49584, "Ġplumbing": 40199, "ĠConfeder": 16986, "ĠMarxist": 26305, "Ġpriest": 11503, "iddle": 2509, "ĠCarter": 10831, "ilege": 41866, "Ġboutique": 45753, "Ġreferring": 9759, "Ġbland": 34377, "Ġadminister": 21766, "yson": 19699, "Ġsimpl": 7106, "ĠGork": 49882, "Ġpreval": 11967, "Read": 5569, "plug": 16875, "Ġcable": 7862, "ĠGer": 13573, "Ġhiber": 46681, "Ġplea": 16720, "Ġarous": 22015, "Ġacquainted": 36620, "safe": 21230, "ĠRHP": 47201, "icy": 4611, "Ġundone": 45171, "ĠEngineers": 27170, "Ġhump": 49779, "Method": 17410, "thank": 40716, "election": 14300, "announced": 43499, "Online": 14439, "Dub": 37590, "Ġwas": 373, "Earlier": 13689, "ĠTemple": 10857, "162": 25061, "Ġwears": 17326, "opoulos": 20338, "astrous": 20168, "ĠEmma": 18966, "spe": 4125, "ĠStreaming": 43124, "rencies": 14038, "Ġadore": 47194, "ĠSEE": 31107, "Ġpursuant": 12997, "ĠApps": 27710, "Ġprojects": 4493, "153": 21395, "Ġnarciss": 24753, "ĠEnterprise": 14973, "Exec": 23002, "uttering": 33598, "ĠAv": 5184, "Ġbelievable": 41632, "âĢĶ": 960, "ĠKindle": 27114, "ĠTar": 14110, "Ready": 35474, "Ġforcibly": 30522, "Ġcaf": 19945, "cube": 40296, "ĠBuffy": 27438, "Ġtheorists": 33142, "Ġappreci": 5763, "ĠCraft": 15745, "ourning": 31626, "shake": 32431, "ĠPick": 12346, "Account": 30116, "Ġassisting": 26508, "Ġtruce": 39854, "ĠMurd": 20305, "urious": 16421, "Ġcontribution": 10156, "Ġod": 16298, "ĠMage": 17323, "ĠLength": 22313, "ceived": 6471, "Ġpray": 12472, "Ġmanifestation": 30566, "ting": 889, "Spread": 44458, "Ġexclude": 19607, "ĠSQU": 45880, "bags": 34005, "ĠRavens": 20091, "Ġprivacy": 6782, "acci": 44456, "Ġquests": 21359, "ATURE": 40086, "Ġsorts": 10524, "roph": 10051, "Ġunseen": 29587, "Ġapex": 40167, "Ġ188": 27778, "acly": 39691, "ĠOptical": 49593, "ĠKhal": 30126, "Ġfluct": 19180, "ĠMansion": 38560, "Ġreported": 2098, "ĠRolls": 40074, "×ķ": 27072, "Ġcoveted": 34707, "plates": 17041, "ĠVehicles": 31365, "Ġpushes": 20070, "ĠZur": 35821, "Ġgeop": 30324, "iffin": 42022, "Ġderailed": 48769, "Ġnatural": 3288, "Ġbelongs": 14448, "Ġ[-": 25915, "Ġgam": 9106, "ART": 7227, "anes": 7305, "ĠMotion": 20843, "ĠCincinnati": 16137, "Ġdungeons": 33062, "ollo": 15578, "ocobo": 37642, "istance": 9311, "Ġoverd": 14904, "Ġvigorous": 31543, "ĠAhmad": 24152, "esi": 46551, "ĠSutherland": 47793, "bly": 36874, "Ġsmugg": 19176, "Ġunprepared": 45102, "idine": 39422, "Ġadvantage": 4621, "ĠGw": 39661, "Ġ435": 42671, "Ġsimul": 39698, "encing": 9532, "ĠLore": 15639, "Ġmuscles": 12749, "Ġabsorbing": 34418, "Nich": 46489, "assi": 46527, "Ġstool": 38753, "Tr": 2898, "\"><": 22039, "Ġsq": 19862, "axe": 38231, "Ġspending": 4581, "548": 49934, "Ġsurrendered": 29209, "toc": 40301, "bf": 19881, "suit": 6063, "OVER": 41983, "Ġincon": 15861, "Kevin": 23865, "Dun": 30128, "ĠMilitia": 48558, "Ġagency": 4086, "Ġwielding": 33949, "ĠScots": 33860, "Ġweek": 1285, "ĠTorres": 27663, "irting": 35355, "ĠÂ©": 10673, "ĠWax": 42656, "ĠPharma": 41845, "Ġattempted": 7482, "enario": 39055, "Ġts": 40379, "Ġoutput": 5072, "Ġsettled": 10282, "imum": 2847, "Ġinnov": 6237, "allowed": 40845, "ĠPredators": 42065, "ĠCode": 6127, "Thankfully": 48387, "Ġtables": 8893, "Cur": 26628, "alker": 20949, "acerb": 22428, "ĠWhoever": 37807, "pay": 15577, "Ġdecrypt": 42797, "Ġassume": 7048, "ĠVaj": 39838, "Ġcomplicated": 8253, "Ġinfluential": 14212, "ĠBOOK": 39633, "Ġprefer": 4702, "Ġ......": 47082, "educated": 27317, "Ġstarred": 31636, "ĠScy": 32252, "314": 33638, "ĠSh": 911, "Ġmillennial": 46451, "ĠPaint": 23467, "Ġlibertarians": 35929, "Ġenvironment": 2858, "Ġnun": 48157, "ĠCorona": 44574, "Ġvil": 39796, "Ġlawfully": 41095, "Ġaston": 16128, "Ġostr": 42387, "March": 16192, "ĠNate": 23486, "assian": 46091, "Herm": 48523, "eah": 4617, "ĠTravel": 13524, "making": 8601, "ĠUtility": 34030, "amura": 37324, "omon": 16698, "ĠSamsung": 10397, "Indian": 30821, "ĠBurma": 40306, "Ġgradual": 24972, "ĠLIVE": 28323, "ĠComedy": 22329, "ę": 213, "Ġdate": 3128, "Ġquery": 12405, "ĠMoran": 42705, "June": 15749, "Ġclassification": 17923, "ack": 441, "ĠTexans": 21012, "283": 30290, "Ġascended": 44440, "amount": 17287, "ĠEleanor": 45566, "Ġdriveway": 33515, "ĠByzantine": 45772, "..": 492, "Ġmerchant": 20729, "isha": 19388, "adic": 23876, "Ġoxidative": 37736, "buff": 36873, "ĠRoger": 13637, "å§": 34650, "ĠLF": 47629, "ĠJas": 21961, "ĠUSB": 8450, "Ġmud": 17492, "Ġexhib": 7316, "arl": 7063, "Ġclarified": 28464, "ĠBre": 3719, "Ġdistinguish": 15714, "]);": 36563, "Ġ292": 41569, "Ġacoustic": 26071, "Ġenrich": 22465, "tch": 38664, "fortable": 12065, "xxxx": 12343, "NRS": 41256, "Ġmember": 2888, "tex": 16886, "bernatorial": 43660, "thanks": 27547, "process": 14681, "ĠPlex": 47176, "dy": 9892, "adding": 26872, "framework": 30604, "691": 49541, "ĠKer": 17337, "Ġcoats": 30720, "FR": 10913, "swe": 46280, "Ġexactly": 3446, "ĠNolan": 27788, "kward": 12378, "à¸": 19567, "Ġignores": 24245, "Ġslamming": 39603, "ĠReuters": 8428, "hetti": 33392, "Lt": 49578, "unless": 25252, "FTWARE": 37485, "495": 33781, "Cod": 43806, "ĠMana": 17493, "ĠBreitbart": 19923, "redits": 20696, "ulture": 6456, "Ïĥ": 38392, "Ġjaws": 39940, "Ġheavily": 7272, "icted": 5722, "909": 44675, "ĠGus": 37307, "Ġperpetrators": 25185, "Ġstyle": 3918, "Ġyield": 7800, "676": 42548, "Ġrecomp": 48765, "Ġcathedral": 41756, "Ġprecious": 14186, "Ġtarg": 2103, "Put": 11588, "Dir": 35277, "ĠVortex": 49790, "Ġascent": 37137, "Ġdisrupt": 10114, "embedreportprint": 30898, "itized": 36951, "rag": 22562, "SP": 4303, "ĠALS": 27249, "Ġstripping": 37727, "Ġsprayed": 35729, "Ġpracticable": 44791, "Dist": 20344, "Ġsubstit": 21436, "Ġrequesting": 20623, "Ġdelegates": 15265, "Ġbattlefield": 13480, "Same": 30556, "oliberal": 28525, "Ġcohorts": 40182, "ĠSocial": 5483, "ipop": 42800, "stairs": 17617, "ĠYemeni": 38534, "opening": 29443, "ĠDodge": 26048, "wrapper": 48553, "ĠWrite": 19430, "inary": 3219, "Ġtrop": 14673, "recorded": 47398, "ĠOwners": 33147, "ĠRove": 48351, "Ð»": 30143, "Ġseekers": 22310, "ĠTP": 24525, "Ġradiation": 11881, "delete": 33678, "ĠRothschild": 38198, "riers": 8910, "Ġsupporters": 5941, "ugh": 6724, "Ġshallow": 19337, "imer": 22723, "ĠCSV": 44189, "ĠKoreans": 25999, "Ġgone": 3750, "ĠCrimson": 18722, "ifully": 17049, "Ġbenign": 32293, "Ġstaffing": 36700, "Ġaddicted": 28357, "DON": 41173, "UU": 30100, "Ġdistant": 12899, "ĠRussians": 13234, "able": 540, "Focus": 34888, "lambda": 50033, "Rh": 38576, "Ġad": 512, "Ġsignage": 46924, "velength": 26623, "10": 940, "Square": 48011, "ĠisEnabled": 34842, "Ġquotation": 35777, "isation": 5612, "ĠHera": 23480, "ĠAbyss": 16681, "ĠRevenge": 24366, "ĠPrinceton": 23173, "Ġcost": 1575, "pose": 3455, "Ġ$\\": 39280, "Ġterm": 3381, "ĠTPP": 24322, "ĠChinatown": 47043, "Ġcountry": 1499, "Civil": 32610, "Ġaccelerate": 22636, "Ġlaunches": 18617, "Ġquer": 42517, "Ġclutching": 48281, "Ġannex": 22768, "ĠResources": 13864, "Need": 23037, "ĠTrying": 31165, "ĠChocobo": 47021, "Ġphoton": 48190, "own": 593, "Ġ103": 15349, "Personal": 30228, "Cal": 9771, "ĠButton": 20969, "ĠDisciple": 48472, "rus": 14932, "ĠAly": 47535, "practice": 39541, "ĠLinear": 44800, "ĠNPR": 17921, "IFF": 29267, "Ġcourageous": 34010, "ĠWitnesses": 35165, "ĠSears": 36895, "Ġprayer": 11443, "ĠMB": 10771, "Disney": 37338, "ĠAD": 5984, "raphic": 22262, "Ġuranium": 22010, "ĠBonds": 39161, "ĠImplementation": 46333, "Ġcontinue": 2555, "Electric": 44132, "cer": 2189, "Ġheck": 22574, "Ġpersonalities": 20929, "amboo": 27708, "Hon": 29478, "Ġfranc": 46754, "Ġcrates": 40382, "Ġbeliefs": 9056, "ĠHabit": 41950, "ĠContainer": 43101, "ĠFemin": 25832, "Ġ********************************": 41906, "eking": 18754, "MER": 29296, "vv": 25093, "Ġnotify": 19361, "Early": 20457, "Name": 5376, "ĠKi": 21927, "ite": 578, "escent": 45470, "udd": 4185, "iazep": 48826, "King": 15708, "oultry": 30056, "izont": 12071, "@#&": 48193, "Ġfront": 2166, "Ġreusable": 42339, "Ġembod": 13968, "phase": 40715, "home": 11195, "ĠCLICK": 49583, "ĠHector": 42621, "ivalent": 29540, "orsche": 26164, "Ġbrighter": 26083, "Ġcooler": 19346, "ĠMourinho": 28689, "Ġviz": 48569, "Ġinduced": 18268, "Ġstamina": 32312, "Ġ1902": 45611, "ĠArkansas": 14538, "ĠÂ£": 4248, "uddled": 32745, "ĠDelaware": 19603, "Ġinquiry": 12069, "ĠNec": 19652, "Ġ142": 25181, "Ġtut": 9732, "ĠCody": 27035, "Ġfung": 31317, "Ġconverting": 23202, "emonic": 50016, "Ġenable": 7139, "ĠAlvin": 49939, "773": 46871, "Ġleaned": 23831, "Ġangrily": 34425, "ĠConserv": 7162, "Ġfrustrations": 40447, "ĠBorders": 40934, "ection": 3213, "Ob": 5944, "Ġinnumerable": 45383, "plin": 46982, "sponsored": 25427, "annon": 8825, "ĠSugar": 20874, "ĠNATO": 11332, "Ġgar": 5482, "culated": 49262, "ĠBooster": 35203, "ĠIllust": 23279, "ĠEstimates": 47052, "Ġgren": 17236, "ASON": 36033, "Ġcontinual": 37639, "Ġpractition": 17629, "ĠResponsibility": 42988, "Ġalliances": 29614, "wick": 16239, "Ġbc": 47125, "ĠKaren": 18678, "Ġfuse": 32738, "ãģ": 2515, "ĠSaul": 31603, "Ball": 23410, "ĠMacy": 50048, "Ġbackstory": 37998, "rival": 43171, "Ġending": 7464, "CF": 22495, "ttp": 29281, "ĠPokemon": 14878, "EPA": 40906, "birth": 24280, "Ġprecinct": 28802, "Pac": 18844, "Man": 5124, "Ġblew": 17948, "ĠBallard": 45415, "Ġfian": 41668, "Ġwording": 26814, "ĠSpart": 20711, "Ġantibodies": 30869, "RT": 14181, "Ġaccents": 39271, ")))": 22305, "ĠHook": 18531, "Ġviolently": 25856, "Ġdeprived": 26215, "Ross": 38328, "Ġtheft": 12402, "ĠBram": 35315, "ĠSTATE": 35454, "ĠUnd": 13794, "ĠPlaza": 23280, "MT": 13752, "student": 50139, "Ġcoated": 30267, "Ġammunition": 14271, "wd": 16993, "Ġpharmacy": 32763, "IPP": 31444, "px": 8416, "frame": 14535, "Ġlane": 11193, "Ġapprehended": 41979, "Ġchest": 7721, "Ġinventory": 13184, "rou": 472, "wic": 22664, "ĠTrin": 33822, "ĠMRI": 30278, "Ġhomegrown": 49847, "Ġtweeting": 28990, "Ġprescription": 15077, "emp": 45787, "Ġsensors": 15736, "ĠQiao": 45724, "Ġinhal": 40982, "ĠOmega": 19839, "Ġcomput": 2653, "hetics": 24965, "avers": 30400, "vant": 4520, "Ġfirsthand": 37318, "ĠHomer": 28440, "ĠDarren": 26203, "MIN": 23678, "ĠNEC": 41804, "istically": 16772, "ĠRails": 31493, "ĠCheryl": 37958, "Glass": 47698, "ĠCassidy": 41373, "Ġveterans": 11255, "Ġgreed": 25474, "ĠSubmission": 42641, "Ġprincipal": 10033, "CDC": 47667, "ï¸": 35266, "Ġgib": 46795, "Ġoddly": 31414, "erv": 712, "Ġstranded": 28553, "Ġembassy": 18613, "ĠBerg": 24626, "Ġremain": 3520, "Ġml": 25962, "Ġgunmen": 35141, "750": 15426, "Ġfantasies": 30162, "Ġcorrespondent": 21076, "Ġsponsored": 15901, "Ġsensations": 34129, "Ġstandby": 42020, "ĠLost": 9164, "ĠMagicka": 44546, "ĠPax": 48008, "950": 31027, "ĠHERE": 15698, "ĠOswald": 34374, "Lay": 23763, "idis": 29207, "ĠTelevision": 21516, "wald": 21667, "ĠPossible": 33671, "ĠRent": 29832, "ĠQuint": 33405, "ĠKilling": 25536, "ĠGest": 44641, "Ġlinemen": 41683, "gnu": 41791, "Ġanything": 1997, "ĠTriangle": 33233, "ĠYates": 34916, "letters": 15653, "ĠBCE": 37078, "Ġratified": 39067, "quarters": 8230, "Ġoffending": 30810, "oster": 6197, "Ġfirm": 4081, "Ġpathetic": 29215, "ĠCrunch": 38531, "nik": 17187, "Ġkid": 5141, "ĠDHS": 29987, "191": 26492, "ĠCarolyn": 43450, "settings": 33692, "ĠKhalid": 44544, "ĠFreeBSD": 35841, "unity": 9531, "ĠRs": 12820, "Ġhates": 24702, "Ġtur": 7858, "Ġnuances": 42160, "ãĤ½": 47559, "olog": 928, "ĠPew": 21805, "anch": 3702, "ĠSW": 12672, "Ġcooled": 32162, "79": 3720, "Ġni": 37628, "Air": 16170, "ĠKaf": 33913, "jer": 44009, "Ġparted": 37813, "Ġagitation": 42209, "Values": 40161, "Ġdissolved": 26306, "ĠShooting": 25360, "Ġsadly": 21098, "pins": 49556, "Ġlong": 890, "Ġlunch": 9965, "pointers": 47809, "Ġslept": 21256, "ewitness": 28588, "okers": 18698, "leted": 33342, "atility": 18486, "ĠLOC": 37347, "ĠRapid": 26430, "Ġentertaining": 17774, "Ġregulator": 24161, "ĠMonroe": 26249, "Ġvote": 3015, "Ġsemblance": 45960, "Ġcoroner": 39723, "ems": 5232, "Ġdark": 3223, "Matrix": 46912, "umes": 8139, "Ġissuance": 30145, "Ġgrew": 6348, "ĠFounder": 30153, "rimp": 23750, "ĠDating": 43528, "Ġintervene": 22432, "ĠWei": 29341, "ittens": 34978, ".âĢĶ": 13402, "ĠComcast": 21830, "Fair": 30099, "Ġshouldn": 6584, "Shar": 40201, "aping": 9269, "mmm": 27532, "Bug": 25624, "Ġ259": 37831, "ĠExactly": 36819, "Ġworkouts": 27197, "assium": 26663, "Ġdisplays": 11298, "Input": 20560, "ĠEpic": 16781, "ĠLaksh": 47382, "ĠConc": 13223, "chi": 11072, "orgetown": 29085, "Ġfine": 3734, "ĠABE": 44013, "ĠBeautiful": 23762, "ĠIOC": 48245, "ened": 2945, "Ġ2001": 5878, "ĠCadillac": 46089, "Ġocc": 1609, "Ġautopsy": 30241, "Ġmakeup": 16029, "ĠFault": 40050, "Ġpopulism": 47584, "Ġ1700": 35665, "achi": 14299, "Ġsneaky": 48930, "ĠExec": 8393, "Ġhorsepower": 36696, "Ġgodd": 17495, "Ġurban": 7876, "ĠAlzheimer": 22434, "Ġstead": 7978, "Ġpeer": 12720, "stal": 7757, "Ġskyline": 47566, "ĠAren": 9843, "Ġtorment": 33378, "Ġpaced": 44756, "ĠBoom": 31824, "Ġfrontal": 30424, "GM": 15548, "ĠJazz": 21406, "Ġinterpre": 16795, "Ġperjury": 47816, "microsoft": 40485, "Ġbegged": 32946, "manufact": 48119, "IFA": 19071, "ĠTimber": 27893, "ĠBowling": 44748, "ãĥ³ãĤ¸": 45823, "Ġsuperficial": 31194, "Ġ625": 48868, "inis": 16661, "Ġgenerous": 14431, "ĠSecondary": 29521, "ĠParty": 3615, "Ġaltered": 14294, "Ġaccumulated": 22425, "ĠQuestions": 20396, "ĠOu": 42201, "ĠFIL": 34020, "Ġdealt": 11829, "uk": 2724, "Ġgradient": 31312, "Ġpan": 3425, "Ġcompel": 33729, "008": 25257, "Ġspaced": 38980, "ĠPerception": 35802, "Ġhen": 30963, "Ġpotions": 28074, "Ġcognition": 31119, "Ġvaluable": 8119, "Ġweaknesses": 20256, "Ġhim": 683, "Ġdiffers": 24242, "Ġpatriot": 29408, "Ġhail": 32405, "Outside": 30815, "IK": 18694, "metal": 28469, "Ġnegotiated": 22368, "direction": 37295, "etermined": 23444, "ĠKeyboard": 31973, "July": 16157, "Ġadvertised": 23944, "Ġposing": 24380, "leaders": 37553, "Ġpeoples": 14366, "Ġmonkeys": 26697, "Ġimprovis": 47833, "Ġdemon": 3222, "...?": 44825, "ĠReading": 11725, "history": 23569, "33": 2091, "herry": 13372, "Ġspacious": 40894, "ivals": 10336, "ĠEating": 37537, "Ġdis": 595, "Ġdenounce": 38639, "Ġclassical": 15993, "Going": 27404, "Ġ120": 7982, "ĠMor": 3461, "amy": 14814, "Ġsec": 792, "ĠRandolph": 39845, "ĠZup": 45672, "ĠHeidi": 45518, "572": 48724, "ĠLeading": 43225, "ĠOnly": 5514, "Ol": 30098, "ĠPLoS": 49832, "ĠSSD": 21252, "Ġdeep": 2769, "ĠProdu": 21522, "rame": 28073, "Ġcracks": 23217, "DI": 17931, "ĠCompar": 22565, "Ġdem": 1357, "ĠDana": 22937, "EST": 6465, "Ġdeflect": 31685, "Ġoperations": 4560, "Ġtackle": 9761, "police": 38191, "angles": 27787, "ĠSoc": 3345, "gest": 3495, "Ġdestroys": 27838, "depth": 18053, "Alternative": 49788, "Bay": 15262, "Ġhacked": 19957, "ĠThanks": 6930, "offset": 28968, "Ġmattered": 33343, "525": 39088, "ĠMum": 38367, "Ġ#": 1303, "ĠLets": 38257, "ĠNike": 23817, "006": 28041, "auts": 17712, "ighth": 10887, "Ġkeeps": 7622, "ulnerable": 38828, "ĠGeneration": 16588, "101": 8784, "Ġappreciate": 9144, "projects": 42068, "ments": 902, "ĠLean": 45661, "ĠBrewing": 19321, "Ġdiced": 48898, "IS": 1797, "ĠServing": 49208, "econom": 13926, "Ġjustices": 27818, "Ġwithd": 6681, "ĠRM": 29820, "ĠRecommended": 31117, "End": 12915, "almost": 28177, "Cele": 42741, "ĠGentle": 25066, "ĠHeard": 49417, "ĠElon": 32451, "gm": 39870, "ĠStout": 40275, "IELD": 49979, "Ġpart": 636, "ĠEntry": 21617, "Ġsovereign": 18901, "Ġcapitalist": 15098, "Ġadditions": 19885, "Ġaccordingly": 16062, "JD": 37882, "ĠIEEE": 40552, "Ġperpetually": 43389, "Ġinstitutional": 15855, "ĠOrioles": 32907, "Ġfend": 41229, "inen": 42326, "Ġweird": 7650, "Ġmodule": 8265, "demon": 26567, "imus": 20704, "Ġuttered": 36144, "apping": 5912, "Beyond": 24102, "Ġsnapshots": 47787, "ĠMEM": 35153, "Ġlect": 11042, "ĠINFO": 24890, "Ġinstinct": 13311, "Ġstandard": 3210, "ĠArthur": 13514, "Ġthugs": 35052, "ECTION": 24565, "Ġnursing": 19167, "Ġ222": 27795, "ĠRisk": 19602, "oooo": 13321, "ĠREC": 19644, "ĠHatch": 31537, "Ġtraitor": 35731, "ĠCalder": 36468, "Ġconstructor": 23772, "-+-+": 27097, "Ġmayor": 9591, "ĠCoy": 26887, "Ġescape": 6654, "Ġacknowledgement": 41259, "atorium": 30732, "Ġparallels": 30614, "Ġreviews": 8088, "ĠExplan": 50125, "Ġceremony": 10542, "Ġbaked": 22979, "ĠLuk": 28102, "ĠOmni": 44251, "ĠRFC": 30978, "Ġcases": 2663, "omers": 21499, "Ġdiscriminated": 41117, "Ġpseud": 25038, "Transaction": 48720, "ĠOpposition": 29560, "UGH": 44004, "ĠTrib": 10841, "Ġredesigned": 36240, "Ġnonsensical": 49569, "Ġcoaches": 11070, "Ġexpressive": 38084, "Bs": 37000, "ily": 813, "ĠDock": 36444, "Ġimmigrants": 7971, "ĠHog": 22411, "Ġstupid": 8531, "Ġdonkey": 50085, "anth": 29313, "MO": 11770, "23": 1954, "ston": 3743, "ĠHolder": 24210, "Monday": 23810, "intage": 14630, "ĠDesign": 8495, "Ġsubmer": 32640, "hab": 5976, "Ġabduction": 39630, "Ġreferee": 22957, "con": 1102, "inos": 11996, "Suddenly": 38582, "Ġearth": 4534, "inner": 5083, "ĠThy": 31468, "itled": 7803, "Ġcatchy": 46124, "Ġobscured": 40157, "Ġblame": 8138, "âĻ": 17992, "Ġpopulation": 3265, "IONS": 11053, "keleton": 38800, "ĠDragons": 19075, "Ġstrategy": 4811, "Ġprosecute": 26057, "481": 40271, "Ġconsists": 10874, "Ġroutine": 8027, "Ġcracked": 21368, "rats": 46714, "273": 27367, "twitter": 6956, "ĠRicardo": 38847, "Ġfluent": 43472, "Ġneuron": 43164, "Raid": 49043, "Ġcowboy": 42966, "Ļ": 247, "Ġ27": 2681, "Ġconquer": 23875, "Ġadvise": 18595, "Ġnumerical": 29052, "Ġdestroyer": 41056, "ilk": 43545, "beat": 12945, "fi": 12463, "ĠRoof": 35271, "anticipated": 45178, "Ġfather": 2988, "ĠMiscellaneous": 46253, "ĠTracy": 31140, "___": 17569, "Ġrivers": 18180, "Ġcontinuous": 12948, "Float": 43879, "Ġ777": 35534, "Ġdragging": 25046, "ember": 1491, "Ġobedient": 41652, "Ġrookie": 12302, "Ġweeds": 36708, "Ġfulfilling": 26187, "ĠDaryl": 44385, "Ġ247": 30179, "Ġcunning": 34218, "Ġritual": 12146, "Ġhops": 29438, "},": 5512, "ĠUganda": 30872, "ĠBroad": 9765, "Ġinflamm": 14092, "sterdam": 22506, "ĠRel": 4718, "Ġdata": 1366, "Ġassets": 6798, "ador": 7079, "ĠCinnamon": 48932, "Ġprecedent": 19719, "Ġcompatible": 11670, "ĠMiddles": 46050, "Ġgot": 1392, ".......": 25780, "173": 25399, "Ġworkflow": 30798, "ĠTitans": 18711, "ĠWay": 6378, "Ġcharismatic": 34996, "lon": 14995, "Ġenerg": 19647, "ĠFREE": 17189, "Ġlimb": 25035, "Ġ72": 7724, "copy": 30073, "ikawa": 40398, "ĠBangalore": 46216, "Ġcomposite": 24185, "Ġtrademarks": 27346, "Ġdepletion": 42435, "Ġsuperstar": 28422, "ĠAudit": 46450, "Santa": 42694, "telling": 18072, "Ġrichness": 46792, "Ġacceler": 8320, "chem": 15245, "volume": 29048, "ĠCount": 2764, "ĠUltr": 46487, "ional": 1538, "card": 9517, "ĠLung": 39337, "Gs": 33884, "Ġaxis": 16488, "Route": 43401, "rik": 12602, "ĠMaj": 12390, "Ġefforts": 4040, "Ġlords": 33200, "Ġdeficit": 11807, "ĠAbd": 17870, "ĠPatty": 42417, "Ġwrap": 14441, "Ġcider": 36930, "Ġblogger": 23530, "ĠLeopard": 49072, "Ġanalysts": 13440, "ĠFrankenstein": 45738, "fab": 36434, "Ġoverwrite": 49312, "Ġmodifications": 19008, "Cash": 35361, "Ġspecified": 7368, "iband": 35967, "Ġairlines": 26225, "Ġtra": 1291, "ak": 461, "ĠValkyrie": 23620, "ĠRELEASE": 46492, "adder": 26676, "Ġbreastfeeding": 32613, "Ē": 206, "Ġmen": 1450, "ĠAston": 33644, "awei": 38247, "ĠCosts": 36845, "qus": 45260, "Ġâĺ": 34719, "ensity": 6377, "ĠStockholm": 29679, "=\"\"": 33151, "ĠJac": 8445, "Ġsqueezed": 29650, "Voice": 35708, "501": 33548, "ĠCivilization": 31755, "cle": 2375, "Ġsister": 6621, "tmp": 22065, "Ġbonuses": 17568, "100": 3064, "ĠPlace": 8474, "Ġmobile": 5175, "Ġkissing": 25847, "BUR": 38926, "ĠMacron": 31362, "Ġfronts": 29324, "Ġzip": 19974, "Ġ504": 41612, "ĠConsulting": 41005, "Ġbelong": 5594, "input": 15414, "resistant": 26128, "Ġfootballer": 44185, "Ġbits": 10340, "Ġshove": 38332, "gly": 10853, "uous": 5623, "FM": 23264, "ĠMcCorm": 42037, "iership": 36689, "ĠChennai": 47678, "ĠSchwe": 40430, "inic": 47277, "ĠTeen": 21432, "ĠGrants": 40535, "ĠRC": 13987, "rod": 14892, "Ġfisher": 17685, "kai": 32765, "Ġgentleman": 22427, "Ġcalf": 31134, "Ġpoison": 8764, "1994": 22666, "galitarian": 39907, "ĠObserv": 19243, "chieve": 24957, "ĠTul": 30941, "Jonathan": 30365, "11": 1157, "Ġmonitored": 20738, "Ġarena": 13478, "Ġcollusion": 29771, "465": 42018, "Ġequivalent": 7548, "ĠRT": 11923, "anan": 27870, "Ġslip": 13819, "ĠAdding": 18247, "Ġideology": 12959, "ince": 924, "Ġresurrected": 41914, "ĠSimple": 17427, "ĠNebula": 46915, "director": 35248, "ĠPeggy": 40910, "ĠManga": 27024, "amic": 18127, "646": 27720, "Ġprotein": 7532, "Ġhappy": 3772, "account": 23317, "Ġstudy": 2050, "aida": 30546, "ĠLumin": 43496, "Ġrot": 5724, "Ġvolunteers": 11661, "Ġsituations": 7445, "ĠColour": 38773, "Ġrelief": 8259, "ĠSke": 19460, "Ġamuse": 26072, "Ġbones": 11945, "Ġallegation": 24389, "ĠBat": 6577, "Ġslave": 11778, "ĠYES": 21560, "ĠManufacturer": 40218, "ĠHeight": 27280, "Ġaquatic": 37115, "ĠSikh": 34629, "Ġquirks": 48072, "Ġinvaluable": 30438, "iasco": 40025, "Ġrenov": 24317, "ining": 3191, "Others": 25599, "ĠDetection": 46254, "Ġ2002": 6244, "Ġhive": 35881, "Ġmalaria": 33917, "Ġboards": 11490, "ĠMercy": 30759, "ĠAmerica": 2253, "Ġnegotiate": 16674, "ĠGordon": 11646, "Ġ1897": 49429, "Ġneighboring": 19651, "Ġeighth": 16974, "Ã¼r": 25151, "Supplement": 42615, "as": 292, "Ġson": 3367, "ĠGaw": 30187, "illon": 23027, "ethe": 10567, "Ġdescribed": 3417, "ĠRelease": 13868, "owicz": 47982, "Ġ8": 807, "Ġremarks": 10252, "thought": 28895, "ĠRemastered": 22773, "ĠQu": 2264, "Ġtriumphant": 44005, "Ġ248": 32996, "Ġdominated": 13354, "ĠBrandon": 14328, "ĠExplain": 48605, "amide": 37905, "Ġbankrupt": 13158, "NL": 32572, "ĠAR": 5923, "ĠEngineering": 14044, "Ġinterpretation": 10794, "Ġinclud": 846, "bnb": 31971, "ĠKens": 29018, "Ġdisproportionately": 28719, "Ġ167": 26118, "Ġant": 1885, "ĠStructure": 32522, "Ġlater": 1568, "Ġprivately": 17092, "ĠJordan": 8078, "ĠSketch": 17001, "Ġsage": 35021, "ĠPatel": 33110, "8000": 33942, "ĠPles": 48468, "Ġgrammar": 23491, "OULD": 24010, "Ġbo": 1489, "Ġany": 597, "ĠPlanes": 42788, "sg": 45213, "kus": 45614, "Ġorganizing": 16924, "Foot": 17574, "Round": 22685, "geist": 49782, "Ġkidn": 12668, "ĠPlasma": 31226, "Shipping": 45169, "iffs": 10203, "Ġhttps": 3740, "ĠWidth": 38807, "Ġcongrat": 19833, "ew": 413, "Ġcharging": 11642, "amoto": 25384, "Ġreserv": 5463, "Ghost": 32001, "ĠPlat": 32715, "ĠIce": 6663, "Ġsporadic": 48172, "rots": 24744, "ĠWeekly": 18168, "Ġencounter": 8791, "ĠThief": 23471, "ĠPt": 34352, "Ã³": 10205, "stantial": 41321, "Ġsomeday": 25580, "ĠEU": 4576, "ecake": 46557, "Ġmistakenly": 33168, "ĠMonitoring": 37484, "''.": 35384, "ĠHerbert": 28648, "helle": 34454, "Ġlicensing": 15665, "Ġwins": 7864, "DVD": 39218, "ĠSemi": 35525, "Tok": 19042, "Ġcoercion": 32000, "275": 23195, "ĠCarpenter": 32659, "Jen": 44875, "Ð": 140, "ĠBot": 18579, "Ġharsher": 50243, "Ġ313": 35897, "ĠDoug": 15115, "against": 32826, "ohan": 22436, "Flo": 33574, "wired": 44236, "Ġgastrointestinal": 40887, "ĠVeteran": 32733, "Tex": 17005, "ĠDevil": 10489, "incinn": 15020, "Ġdashed": 37901, "Ġroadside": 39479, "ĠHudson": 19995, "Ġconcepts": 10838, "Ġinfl": 28472, "ylon": 15158, "ensable": 33447, "Ġmono": 33361, "cur": 22019, "Ġdollars": 5054, "OL": 3535, "ĠTim": 5045, "Ġsolves": 39107, "alf": 1604, "ceptor": 49492, "Ġbases": 12536, "Ġopenness": 30913, "55": 2816, "ĠCats": 28997, "ĠChain": 21853, "Ġmodify": 13096, "Ġunlawful": 18236, "Ġrefill": 47539, "ĠFunding": 35249, "dated": 8715, "Ġaims": 12031, "stable": 31284, "4000": 27559, "ĠConsortium": 42727, "Dam": 14550, "Tele": 31709, "Ġstew": 20798, "content": 11299, "Ġpinnacle": 45985, "Ġearthly": 39892, "Ġcabin": 9351, "Ġreinforcing": 40991, "Stan": 32140, "Ġfollowers": 10569, "Ġpanicked": 38225, "Ġtrigger": 7616, "Ġcrushing": 24949, "Ġpioneered": 43185, "Ġtyrann": 44315, "Ġcaught": 4978, "Ġsh": 427, "Zen": 47573, "ĠZerg": 37509, "Ġwob": 46867, "Ġdetrimental": 29417, "roversial": 46927, "ĠRuler": 31808, "ĠCed": 25789, "Ġoptimized": 23392, "upuncture": 42223, "Ġstriving": 34260, "uren": 23532, "ĠWin": 7178, "ĠMTA": 48824, "ĠAllaah": 49086, "ĠPrototype": 48954, "romeda": 32291, "ĠMP": 4904, "Pak": 29675, "ells": 19187, "Ġaudi": 40504, "ĠBowen": 46977, "åĭ": 47947, "Ġballs": 11333, "ĠGas": 14345, "Ġrooted": 19459, "onic": 9229, "Function": 22203, "xml": 19875, "Ġintertw": 39458, "Â©": 16224, "Ġlinks": 6117, "hetto": 35619, "Ġapproached": 10448, "ana": 2271, "\").": 11074, "Ġspam": 18084, "ĠArmor": 10313, "ĠPersia": 46452, "Ġcrew": 5462, "ĠguiActiveUn": 29372, "ĠAdvertisement": 39711, "ĠAmbassador": 20656, "Ġmassage": 26900, "Ġmetabolic": 19737, "selected": 34213, "ĠMouth": 44764, "Ġ529": 49888, "ĠTyler": 14886, "api": 15042, "ĠNeuro": 13782, "ĠInquiry": 39138, "budget": 37315, "Ġscreening": 14135, "ĠPurch": 34459, "come": 2958, "Ġoversaw": 40394, "Ġcommittee": 5583, "ĠGMT": 16987, "ĠBetween": 14307, "Fail": 39044, "Ġmand": 6855, "Ġbible": 41169, "ĠLamb": 21114, "ĠHH": 47138, "context": 22866, "Ġbipolar": 31170, "Ġknockout": 35825, "als": 874, "00200000": 36490, "ĠAnything": 21035, "Ġanecdotes": 44662, "Ġalongside": 7848, "Ġcompensation": 9836, "Ġrig": 7805, "xx": 5324, "Ġeasiest": 16638, "qv": 44179, "ml": 4029, "leases": 29329, "Ġtipping": 31639, "Ġantics": 39343, "Ġ112": 13539, "ĠGilmore": 47169, "Ġwavelengths": 45656, "hibition": 24108, "normal": 11265, "ĠRespons": 20549, "Ġapi": 40391, "gas": 22649, "Scroll": 29261, "ĠDale": 20412, "sequence": 43167, "Ġforthcoming": 21220, "Science": 26959, "ĠBapt": 18226, "Ġfull": 1336, "Ġcoffee": 6891, "Ġdividing": 27241, "Obama": 15948, "cod": 19815, "chapter": 43582, "ç": 163, "Ġchance": 2863, "ĠLiverpool": 11761, "ĠChilean": 48014, "pun": 35512, "steel": 44822, "eling": 10809, "Ġnickel": 30666, "isoft": 29719, "Ġflo": 5530, "valued": 39728, "Ġillust": 6406, "tx": 17602, "ĠGuid": 37026, "istant": 10167, "KING": 37286, "Ġcomputers": 9061, "ĠHoms": 47778, "Ġgranting": 21787, "Ġcho": 1727, "ĠBeau": 32831, "Ġflatt": 27172, "kHz": 44191, "Ġdisgrace": 27690, "inelli": 44076, "Ġneither": 6159, "Ġvan": 5719, "Ġcance": 10450, "uggle": 33498, "Ġtomb": 22234, "Ġclimate": 4258, "Ġcondone": 48058, "ĠGustav": 43715, "Ġreckon": 43851, "986": 49087, "Ġlegitimate": 9829, "ĠAhead": 40344, "Ġvow": 23268, "Ġpian": 43923, "Ġincorpor": 8552, "\":{\"": 8351, "Ġcommenters": 43807, "ĠHell": 5783, "ctl": 34168, "Ġpiercing": 30662, "Ġsisters": 15153, "ading": 4980, "Ġpresumed": 25751, "ivery": 6315, "Bloomberg": 47696, "Ġ??": 19153, "mem": 11883, "Ġdolls": 36062, "Ġsafely": 11512, "bal": 6893, "ĠVanity": 46584, "ited": 863, "Ġ!!": 37867, "Ġblot": 43182, "Ġeditors": 15719, "ĠDJs": 48644, "Ġgr": 1036, "ĠDust": 16240, "Ġimperialist": 40061, "Ġretracted": 47360, "Ġsquares": 24438, "eeds": 39642, "Ġunity": 14111, "Ġtoward": 3812, "Ġunrel": 23232, "vantage": 38815, "ĠSpread": 31843, "lah": 9271, "Ġreturned": 4504, "ĠSenior": 14017, "driver": 26230, "ĠNottingham": 39802, "Ġtotalitarian": 34524, "ĠFollowing": 14207, "Ġbrilliant": 10457, "2012": 6999, "Ġput": 1234, "ldom": 23826, "Ġattain": 18188, "642": 41290, "lator": 41880, "183": 24839, "Ġunrestricted": 36263, "xa": 27865, "ĠIv": 16975, "ĠLatin": 9133, "Ġcreative": 7325, "Ġcuriosity": 20136, "oeuv": 37600, "ĠPrograms": 26179, "Ġsniper": 26160, "ĠMemor": 41157, "ĠSlowly": 46484, "Ġmatching": 12336, "NE": 12161, "Ġdawn": 17577, "ight": 432, "ĠCounsel": 21023, "Ġforfeiture": 32075, "ĠActress": 47144, "ĠMaps": 20347, "ĠBy": 2750, "SU": 12564, "Ġbuckets": 38674, "ummer": 31647, "ĠBrennan": 26577, "ĠGawker": 36528, "Ġclarify": 18282, "LIN": 34509, "ussed": 29569, "Ġpaints": 32281, "Ġinc": 753, "glomer": 37757, "ĠER": 13793, "Ġphysical": 3518, "Ġtypes": 3858, "Ġtheir": 511, "Ġtemporal": 21964, "Ġfmt": 46996, "ĠLenn": 28423, "pal": 18596, "Ø§": 12919, "rian": 4484, "Ġabrupt": 19363, "Me": 5308, "736": 49150, "Along": 24035, "ĠPassive": 31652, "311": 36244, "works": 5225, "ĠCOUNTY": 41012, "Ġwipe": 19916, "6000": 43434, "Ġartifact": 24127, "Ġmillion": 1510, "Database": 38105, "Ġindifference": 34324, "ĠUzbek": 42619, "Ġreactionary": 35578, "ĠâĶĤ": 19421, "Ġunstoppable": 40181, "tested": 39612, "Ġdiscouraging": 48001, "ĠRum": 25463, "ucks": 6238, "arily": 3093, "Ġdisson": 47080, "lake": 27180, "Ġpitches": 22421, "ĠCat": 5181, "Ġimpedance": 47472, "Ġhypocrisy": 29442, "ĠClippers": 28564, "ĠParents": 28231, "Row": 25166, "Dro": 35442, "Ġthankful": 25535, "ĠDirection": 41837, "Ġnegligence": 28612, "ofi": 39542, "cliffe": 33783, "ĠAgainst": 12914, "712": 49517, "Ġpolicies": 4788, "Ġterritories": 16771, "Ġveteran": 9298, "ĠSeeds": 41833, "Ġshadows": 16187, "ĠScal": 34529, "data": 7890, "ĠFR": 8782, "Fuel": 42663, "ĠÎ¼": 18919, "ĠGenetics": 43574, "Remember": 16676, "inters": 20193, "soon": 36194, "Ġeccentric": 29303, "/)": 34729, "Ġdiluted": 37936, "cled": 20095, "Ġtubes": 21103, "iculty": 22402, "25": 1495, "Ġnormal": 3487, "Ġblunt": 19861, "Ġincomplete": 17503, "ĠKag": 26785, "ĠCommittees": 27808, "hod": 2065, "Mag": 13436, "Ġfeces": 43924, "hospital": 49257, "ĠHil": 24410, "ĠRemain": 42606, "Ġrepe": 3172, "ĠâĢĭ": 20126, "apa": 32678, "Ġ1": 352, "Ġjudge": 5052, "Ġbear": 6842, "ĠBarton": 32342, "Ġmassacre": 19050, "cal": 9948, "args": 22046, "Ġtreason": 32204, "Ġseizure": 22338, "ĠUCLA": 21750, "Ġvision": 5761, "Ġadul": 19046, "ĠBrilliant": 45891, "Ġstuffed": 22259, "Ġaftermath": 16280, "Ġapplies": 8991, "ĠCopenhagen": 31104, "1500": 33698, "877": 42802, "Ġ82": 9415, "follow": 27780, "ĠDemocrats": 4956, "ĠBrass": 32309, "ĠKorean": 6983, "burn": 10899, "Ġprogressively": 34322, "ĠLegislature": 20815, "ibl": 10506, "Ġfigures": 5538, "Ġcoordination": 19877, "Born": 28524, "ĠCho": 10031, "imity": 18853, "Ġsurgery": 8185, "Daily": 28545, "Ġcuff": 47291, "ages": 1095, "ĠNormal": 14435, "Ġpurported": 23236, "Ġprogression": 17085, "ĠGibson": 20400, "Ġzoo": 26626, "itch": 2007, "erella": 36648, "ĠJohnny": 15470, "photos": 24729, "Ġgrief": 18522, "ription": 2918, "Fla": 47487, "Ġtroubles": 14979, "ĠLibyan": 28661, "Ġun": 555, "Ġrespectable": 27721, "Ġdecipher": 42790, "boards": 12821, "ĠOscars": 46485, "Ġgenerated": 7560, "ĠMaurit": 46106, "Picture": 28070, "ariat": 21621, "Ġmission": 4365, "Ġeras": 49089, "ãĥĬ": 26229, "Against": 39276, "edient": 35279, "acking": 5430, "ĠLinux": 7020, "elf": 7046, "Ġâĸł": 34252, "ety": 2963, "ĠFlag": 19762, "ileged": 48446, "ĠBil": 24207, "Ġsaturation": 36275, "ĠBurg": 21435, "ĠQ": 1195, "Ġexplosive": 13835, "ĠCarn": 19659, "Ġassessing": 24171, "ot": 313, "Ġhostile": 12524, "Ġtou": 2819, "Ġreligion": 5737, "ĠDele": 42226, "ĠGreenpeace": 42793, "ĠQuery": 43301, "Ġnative": 6868, "Deb": 16587, "Ġcrashing": 21899, "Ġneighb": 9882, "Ġminimalist": 44693, "md": 9132, "Ġcommunicated": 28412, "Ġseasoning": 46794, "Ġfog": 19558, "Ġidentifiers": 42814, "Ġbyte": 18022, "185": 21652, "eth": 2788, "ĠVigil": 39840, "Ġincompatible": 27294, "Ġabilities": 7883, "ĠOlsen": 39148, "lvl": 47147, "Ġprize": 11596, "Ġhasn": 5818, "Ġspecifically": 5734, "Ġimposing": 20814, "aways": 23949, "ĠMata": 45332, "ĠTile": 47870, "ead": 1329, "majority": 35839, "Alt": 29161, "Ġsupermarkets": 40875, "ĠTRUMP": 42953, "Ġ208": 27121, "ĠModi": 14637, "Ġradiant": 43888, "QUEST": 35780, "ĠBASE": 49688, "Ġhorrifying": 31906, "ashing": 2140, "ĠBC": 11843, "Ġ<+": 42496, "livion": 26018, "Ġceremonies": 27340, "ĠGord": 39592, "ĠNull": 35886, "flix": 10046, "ĠVander": 26669, "Ġopin": 3631, "Ġlenses": 18405, "ĠRedd": 42734, "ĠTHIS": 12680, "Ġmisleading": 15850, "Ġutterly": 15950, "Ġarrogance": 35033, "Ġantidepressants": 41587, "ISC": 37719, "ĠBrewery": 31003, "cream": 36277, "documented": 47045, "ĠIncludes": 29581, "Ġdensity": 12109, "Ġreturning": 8024, "Ġsteered": 49300, "ĠNaomi": 40474, "é»Ĵ": 44112, "ĠScan": 20937, "asures": 13846, "ĠiPad": 13133, "aku": 8719, "tub": 37995, "Ġdivid": 13576, "hover": 43753, "Ġferal": 43057, "Ġparas": 17850, "Ġparallel": 10730, "ĠTrem": 46656, "angular": 21413, "ĠACS": 48264, "utsch": 40768, "Ġunfolding": 34502, "Ġnotebook": 20922, "ĠFlower": 20025, "reys": 46703, "Ġ440": 33879, "Ġabsence": 8889, "ĠPadres": 40188, "ĠOkay": 16805, "Ġsnake": 17522, "ĠAero": 44720, "Ġclaws": 28421, "ĠChap": 15954, "Ġhut": 40812, "Ġtherefore": 4361, "ĠThro": 47854, "BUG": 12953, "ĠDiver": 50137, "Ġcoward": 26769, "Ġdisappearing": 28867, "Ġproportion": 9823, "Ġpose": 12705, "Ġracked": 41503, "38": 2548, "ĠNuggets": 33978, "cn": 31522, "rac": 11510, "from": 6738, "Ø§Ø": 34247, "Title": 19160, "Ġobservers": 17984, "Ġrelying": 17965, "ĠProtoss": 41849, "Ġapplicable": 9723, "Ġexacerbate": 49522, "ĠRin": 25773, "Session": 36044, "Ġtelecommunications": 27473, "Ġdu": 7043, "Ġbreakup": 41584, "758": 38569, "Ġpsycho": 30731, "quick": 24209, "Ġafraid": 7787, "EStream": 39906, "Â¯Â¯Â¯Â¯Â¯Â¯Â¯Â¯Â¯Â¯Â¯Â¯Â¯Â¯Â¯Â¯": 27006, "ĠKosovo": 37445, "crit": 22213, "ovie": 10739, "ĠPal": 3175, "Ġfabulous": 28294, "Still": 9590, "ĠNun": 39342, "Ġstale": 39985, "Ġslowly": 6364, "rehensive": 36321, "type": 4906, "Ġneurological": 30232, "ĠFif": 12830, "Ġselves": 40823, "Ġsense": 2565, "ISSION": 40373, "ĠMah": 8882, "Ġcreamy": 27892, "Ġcontinually": 17451, "Ġmonk": 27266, "ĠSussex": 41588, "Ġdrew": 9859, "where": 3003, "oof": 37711, "Ġdripping": 37472, "Ġdances": 38207, "Ġbinaries": 38640, "binary": 39491, "riction": 46214, "Ġrobbed": 26773, "active": 5275, "ĠASA": 49599, "Ġj": 474, "ia": 544, "Ġaudience": 5386, "Ġtentacles": 41192, "Ġinteracted": 49236, "ĠAge": 7129, "ĠPlayStation": 14047, "ĠBo": 3248, "Ġlegislative": 10828, "ĠPACK": 47035, "DOS": 35178, "Ġmuseum": 13257, "Ġessentially": 6986, "ĠNewsletter": 35798, "ĠGig": 19525, "ĠCalculator": 43597, "dq": 49506, "Ġencamp": 48020, "Ġmanaging": 11149, "Ġsimulations": 27785, "Ġ347": 43292, "Ġneighbors": 12020, "Ġinequality": 12791, "unction": 4575, "Ġvigil": 16729, "ĠMia": 32189, "externalActionCode": 31576, "Ġbuffalo": 45019, "ovy": 27796, "ĠDungeon": 11995, "Ġturbulence": 47741, "Ġ236": 34044, "Cle": 34349, "Ġrenown": 20287, "Ġprogressives": 31778, "Ġfoc": 2133, "azine": 4994, "living": 19950, "Ġportable": 17726, "ĠInterface": 26491, "Ġsans": 38078, "Ġeternal": 15851, "Ġ^": 10563, "Ġconclude": 13796, "ĠGeorgia": 7859, "ĠFederal": 5618, "deb": 11275, "Ġmajor": 1688, "Ġunveiled": 18475, "Ġcomp": 552, "Ġdolphins": 36798, "Ġdyed": 50052, "Ġinappropriate": 15679, "aments": 12604, "ĠBIT": 36992, "Ġmobilized": 50166, "Ġtitle": 3670, "ifling": 38966, "ights": 2337, "Ġwidespread": 10095, "ĠContribut": 25767, "ĠEVENT": 49261, "ĠKrist": 14912, "Ġmention": 3068, "sych": 2924, "Ġgem": 16840, "Ġprofiles": 16545, "Ġhobbies": 45578, "Ġuncertainty": 13479, "Ġanalges": 48895, "Ġconsolation": 45194, "Ġborrow": 8804, "ĠYoutube": 27431, "MORE": 23346, "ĠNicholas": 20320, "ĠDangerous": 29892, "Ġcolumnist": 22309, "Ġcard": 2657, "ĠAmericas": 25733, "Ġmakes": 1838, "Ġdioxide": 17556, "Ġcompanies": 2706, "Ġfingerprints": 34290, "Ġkne": 24813, "blers": 43022, "Ġmandatory": 13677, "ĠEur": 36554, "Ġtor": 7332, "Ġartistic": 17290, "ĠAZ": 26253, "Proof": 44683, "Ġsoldiers": 5795, "Ġdisob": 30163, "ĠCanadians": 14008, "Ġmanoeuv": 42618, "VIEW": 28206, "ĠGinny": 37877, "ĠMut": 13859, "Ġdiscontin": 19936, "supported": 15999, "ĠHaas": 50090, "mal": 7617, "Ġenhance": 9494, "Ġlandlord": 17335, "Ġ2003": 5816, "brainer": 49334, "ĠAns": 28038, "Ġlast": 938, "LL": 3069, "Ġindicator": 16916, "Thumbnail": 35523, "ĠSPR": 49068, "rase": 22789, "Ġnickname": 21814, "Ġwhales": 24635, "Ġ404": 32320, "ĠBangkok": 35007, "Ġdeaths": 7040, "Ġmuff": 27563, "bred": 36074, "perate": 30052, "ipel": 40634, "RESULTS": 46274, "Minor": 39825, "ĠInstructions": 27759, "ients": 2334, "Ġmalware": 18953, "Ġ490": 45601, "ociation": 41003, "ĠTerr": 38859, "Ġtortured": 22485, "ĠRegions": 47089, "Ġgraveyard": 27672, "Ġcanoe": 47434, "ilde": 44725, "ib": 571, "ernel": 7948, "Ġspectrum": 10958, "ĠTobacco": 28603, "Ġaliens": 16269, "Ġgaping": 46529, "Ġthinner": 30125, "ĠCNS": 48935, "oust": 23968, "Ġfiller": 41134, "Ġdrive": 3708, "Ġsaf": 1932, "Ġmotherboard": 32768, "Ġnoisy": 31210, "osponsors": 39500, "ĠReaper": 29245, "ĠPhilippine": 29911, "Ġbarn": 25203, "Ġcurb": 20799, "Ġconstructive": 26938, "ĠSteal": 47242, "the": 1169, "Ġdiseng": 39402, "Ġpersecut": 32072, "Brad": 30805, "Calif": 19619, "Ġknock": 10643, "956": 50148, "Ġpayable": 28538, "Ġfrightening": 23101, "Ġwedge": 35901, "catching": 50106, "seek": 36163, "Ġmixture": 11710, "ĠHavana": 40274, "han": 7637, "Ġtemp": 20218, "athered": 8638, "ffen": 46985, "ĠMand": 13314, "ĠMaryland": 10769, "ilded": 46158, "Flickr": 47250, "ĠPsyNet": 36130, "ich": 488, "wine": 39002, "448": 31115, "ĠMale": 12674, "Ġcircumference": 38447, "acters": 19858, "Ġunconscious": 14917, "Ġnight": 1755, "Ġsplit": 6626, "Ġfearful": 26844, "ĠPaige": 42847, "wp": 24142, "ĠRED": 23848, "Ġpardon": 27322, "romising": 47112, "uchs": 37533, "ĠDante": 34898, "ĠAMC": 36239, "Ġburgers": 34623, "emi": 43967, "âĢĵ": 1906, "oka": 17411, "glas": 14391, "Ġlamp": 20450, "Ġlaun": 2698, "Ġimplication": 26863, "European": 22030, "Ġing": 5347, "Ġunderestimated": 36190, "Amb": 35649, "Ġbrowsers": 22616, "ĠBrexit": 11435, "ĠStars": 10271, "Ġhood": 14263, "Ġfinishes": 20271, "athed": 35932, "Ġincrim": 48903, "IVES": 42472, "ĠCanberra": 33452, "ĠPrimal": 37712, "Ġdistort": 30867, "Ġinterrogation": 24758, "Ġcalculated": 10488, "ĠAnch": 29253, "Ġrigging": 48784, "anoia": 30661, "ĠVaugh": 30856, "andre": 49078, "Nothing": 18465, "Ġdefeat": 7433, "Ġbreathing": 12704, "ĠBucs": 44099, "Ġactivities": 4568, "Ġmoder": 7019, "ĠAmnesty": 30046, "OIL": 49713, "Ġletter": 3850, "Ġinfection": 10280, "NBA": 32470, "Ġmotions": 25530, "Ġpriorit": 19086, "467": 24669, "Ġrailways": 45247, "OX": 48632, "ĠCells": 39794, "da": 6814, "Ġdictators": 20591, "Coun": 31053, "ĠHolmes": 17628, "enstein": 37975, "BUT": 47526, "uffle": 18137, "constitutional": 18789, "Ġcohort": 20812, "ĠCutler": 37194, "ĠSOU": 30065, "ãĥ¼ãĥĨ": 44326, "Ġunus": 7242, "_{": 23330, "Library": 23377, "Ġdigestive": 34616, "Ġdisaster": 9336, "Ġthereof": 15370, "Ġdisappointed": 11679, "ĠSabres": 45899, "ĠTemplate": 37350, "orical": 12409, "Flag": 34227, "arios": 13010, "Ġrecreation": 27702, "Sadly": 36725, "ĠVietnamese": 23618, "Ġdoctors": 7519, "Ġvegetables": 13701, "amn": 34684, "ometime": 47056, "ogenous": 27897, "iny": 3541, "January": 21339, "Ġ304": 31672, "Ġguided": 17455, "ĠStain": 39445, "Ġoutweigh": 31405, "fw": 44482, "Ġtrusted": 13467, "ĠIBM": 19764, "ills": 2171, "chuk": 46019, "endi": 43109, "Ġreborn": 46576, "Ġstru": 2874, "Ġretake": 41754, "Ġbegins": 6140, "ĠRegulations": 26108, "Ġvomiting": 30874, "efficients": 41945, "Ġpredatory": 35341, "released": 30147, "Ġexcitement": 14067, "Ġrelocate": 36867, "Ġbeautiful": 4950, "rontal": 39321, "Ġhect": 35246, "ĠDOS": 43036, "ĠEnable": 27882, "ĠOracle": 18650, "Ġjammed": 45479, "Ġoutnumbered": 46673, "ĠFlorida": 4744, "classes": 37724, "Ġaccomp": 7555, "ĠUFC": 11448, "iances": 16097, "brate": 40804, "ĠBR": 11177, "ays": 592, "Priv": 20184, "iery": 23012, "Ġshirts": 20858, "459": 33459, "Ġaffluent": 34552, "Ġchart": 8262, "Ġorb": 15769, "ĠCapitol": 13241, "Ġperformed": 6157, "Ġguy": 3516, "Ġethanol": 28829, "ĠTi": 16953, "Russia": 16347, "acists": 33194, "Ġviolates": 21806, "Ġepigen": 49651, "includes": 42813, "Ġlogos": 29645, "Ġequivalents": 40255, "Ġresurrection": 27556, "âĸ¬âĸ¬": 49843, "ĠKafka": 46906, "ĠPlum": 43178, "iz": 528, "Ġendanger": 35276, "ĠAbyssal": 45123, "Ġdisagreements": 37990, "Ġrelent": 18547, "apolog": 46407, "âĢĳ": 20977, "Ġabstraction": 34651, "ĠWWE": 15247, "auntlets": 39695, "ĠBarb": 10593, "isions": 3279, "ĠRegistration": 24610, "ohl": 48988, "Ġgallon": 26860, "ĠDeadline": 35954, "Ġinvestigating": 10240, "ĠExchange": 12516, "Ġhelicopter": 15392, "ĠBuddhist": 20838, "Ġdissemination": 44832, "Ġincorporates": 33181, "Ġtaco": 47884, "ĠElectrical": 40224, "seen": 15898, "Energy": 28925, "ĠObserver": 27058, "ettings": 12374, "claimer": 17111, "Ġcaloric": 48413, "ĠMol": 17958, "ĠASP": 34658, "Ġtorches": 49497, "ĠIntroduced": 16745, "matched": 31409, "Ġaudio": 6597, "Ġknit": 30495, "ĠGirls": 12002, "ĠGD": 27044, "ĠHighland": 39874, "ĠSoros": 27900, "Ġdungeon": 18974, "Ġprovides": 3769, "ĠSri": 20872, "Ġchests": 34572, "Ġswollen": 37327, "box": 3524, "Ġbribe": 40879, "ksh": 50133, "um": 388, "ĠGST": 31802, "Ġsuccesses": 23682, "Ġovere": 43656, "ĠAbu": 13098, "ĠAj": 22028, "ĠConcent": 37613, "ĠTak": 15804, "06": 3312, "uke": 4649, "Washington": 17402, "ĠHeaven": 11225, "umped": 27073, "ISS": 16744, "ĠRaces": 45134, "Magazine": 36028, "Ġfulfil": 32363, "named": 13190, "Set": 7248, "char": 10641, "ĠHonestly": 34173, "aque": 18251, "Ġexams": 26420, "iture": 8089, "magic": 32707, "rem": 2787, "ĠSent": 11352, "iment": 3681, "ĠHEL": 36255, "Ġesteemed": 48243, "Ġforty": 16571, "Ġanx": 7296, "ĠErik": 22722, "Ġmun": 29856, "Ġevolving": 21568, "ĠServer": 9652, "facing": 29532, "Ġwhopping": 27833, "Ġasks": 7893, "Ġguid": 10103, "ĠCanary": 50206, "ĠKiller": 19900, "âĢ¢": 3581, "yg": 35641, "formed": 12214, "ĠJackson": 6612, "Mar": 7676, "Ġbribes": 39926, "Ġeighteenth": 45592, "ĠLV": 24981, "Ġstadium": 10308, "Ġplus": 5556, "ĠHillary": 5073, "Ġwastes": 43739, "isd": 9409, "ĠMcG": 11130, "196": 25272, "ĠFE": 18630, "Ġincidence": 18349, "reau": 43611, "ĠSak": 13231, "ses": 8448, "Ġstagn": 23196, "ĠJanuary": 3269, "painted": 47351, "Ġpopulate": 48040, "Ġoperate": 8076, "Ġ][": 41832, "heid": 28420, "ĠStun": 43516, "ĠFinn": 15368, "mobile": 24896, "Ġintercepted": 29842, "Ġfirewall": 32928, "ĠNaval": 20818, "Ġappend": 24443, "fourth": 49393, "905": 44928, "ĠMoto": 23049, "ecd": 21142, "instein": 11962, "ĠFine": 17867, "Kat": 25881, "6": 21, "Ġ1955": 25325, "Ġfinger": 7660, "Ġnovelty": 31650, "Ġpasses": 8318, "Ġgroom": 32443, "Ġaccurately": 14351, "Ġsatellite": 11210, "Ġgenomes": 42136, "metry": 41935, "ighty": 14400, "NET": 12884, "Ġfabricated": 33612, "ĠClare": 22736, "ĠKik": 40571, "ĠChomsky": 41057, "picked": 41891, "ĠPosition": 23158, "Ġentangled": 47446, "ĠCricket": 34761, "ĠEz": 21034, "ĠPAR": 29463, "Ġdiagrams": 37067, "Ġgeographically": 45703, "arkable": 45543, "ĠSeahawks": 16732, "poon": 26743, "Ġcollege": 4152, "ĠVista": 25160, "ĠMcC": 5108, "journal": 24891, "Ġlean": 10904, "Ġheated": 16968, "Ġgenerals": 26770, "ĠNode": 19081, "Ġgoblins": 46220, "Ġequival": 6854, "Ġvacancy": 39836, "ĠArrows": 43946, "Ġdestro": 11411, "Ġsheet": 9629, "ĠFinally": 9461, "Fan": 22480, "ĠPay": 7119, "ĠCumm": 30316, "Ġneutron": 49810, "ysc": 28349, "Ġcutoff": 45616, "Ġswe": 3490, "Ġ1908": 40417, "Ġpra": 7201, "https": 5450, "raged": 18312, "ðŁĳ": 41840, "Ġship": 4074, "Rect": 45474, "Ġatheist": 25222, "growth": 27922, "asionally": 31775, "root": 15763, "Ġtaboo": 35899, "ĠTelesc": 34495, "Ġdisease": 4369, "Ġdiscover": 7073, "ĠNAD": 49204, "Ġpoverty": 8098, "Ġfixes": 13040, "Ġportray": 10993, "Ġrapt": 38404, "Ġstances": 47814, "alist": 49845, "Ġflashback": 41963, "no": 3919, "ĠNorth": 2258, "ĠRect": 48599, "ADVERTISEMENT": 19053, "Ġcuc": 38421, "Ġlaws": 3657, "ĠCage": 27577, "Ġgrass": 8701, "Ġnominated": 19332, "Ġwaits": 28364, "ier": 959, "Ġunanim": 17452, "Ġfertil": 19078, "eria": 5142, "Ġunlock": 12116, "uzzle": 9625, "Ġsit": 1650, "Ġglitch": 29204, "Ġshudder": 50130, "Ġ460": 34091, "Ġmelancholy": 47886, "Trend": 45461, "Ġavenues": 34265, "Ġstand": 1302, "nesday": 3462, "ĠPs": 33610, "socket": 44971, "ĠCalling": 32677, "knowledge": 45066, "Ġassumed": 9672, "172": 23628, "Ġbig": 1263, "Ġorbs": 37403, "ĠSchumer": 26107, "Ġfurnace": 42227, "ĠRih": 44502, "Ġspree": 37386, "Ġcunt": 40267, "Ġmang": 45663, "riz": 47847, "Ġslain": 27029, "Ġsynd": 11150, "Ġwatered": 48024, "ovych": 40822, "Ġlapt": 10882, "ãģĻ": 33623, "Ġcontributed": 8639, "Ġharbour": 39720, "ĠSending": 32038, "Ġaffiliate": 17375, "videos": 32861, "celer": 7015, "ĠGentleman": 42112, "Ġshaming": 46382, "Ġobservations": 13050, "ĠLabour": 7179, "ĠVI": 13889, "KS": 27015, "Ġcomposing": 49760, "RP": 20031, "ĠRates": 34864, "Ġtheorist": 46410, "ISA": 22312, "iday": 2567, "Woman": 48081, "427": 42363, "########": 7804, "Sunday": 21934, "Ġtours": 21284, "istle": 12535, "ĠTeddy": 29345, "Ġlongtime": 15076, "Protect": 41426, "Ġmysql": 48761, "Write": 16594, "ĠTransportation": 15198, "Ġcommencement": 32609, "ĠQuan": 42312, "Ġgrids": 50000, "Ġneo": 19102, "Ġissuing": 19089, "Ġsalary": 9588, "emen": 8952, "ĠDepression": 22483, "Ġpreventing": 12174, "ĠPoe": 34815, "Ġmodelling": 38591, "ĠNash": 13950, "Ġsou": 24049, "ĠRage": 21663, "ãĥ¼": 6312, "ĠJudges": 42495, "maker": 10297, "Ġoutcome": 8055, "Ġelegant": 19992, "ĠPradesh": 25945, "ĠBryce": 39560, "String": 10100, "Ġperformance": 2854, "sac": 30584, "scrib": 40075, "crazy": 50112, "Ġsnippets": 45114, "izing": 2890, "Ġtiers": 33355, "Ġslash": 24632, "Church": 46686, "Ġpepp": 49038, "ger": 1362, "ĠCatal": 16758, "Ġ127": 18112, "ãĥĺ": 23363, "];": 11208, "ĠIndependence": 20153, "Strike": 31584, "ĠSund": 3309, "ghazi": 21775, "Commission": 50246, "inent": 7233, "Ġneigh": 3422, "tight": 33464, "Ġ402": 42622, "ĠTayyip": 41346, "Ġcos": 8615, "Ġproven": 9157, "Ġouts": 12198, "ĠProcedures": 43698, "acles": 9928, "job": 21858, "ĠSetup": 31122, "ornia": 3317, "Ġsuited": 16662, "ono": 29941, "ITE": 12709, "asu": 27345, "oint": 1563, "Ġtips": 9040, "ĠYelp": 44628, "Oregon": 41243, "])": 12962, "ĠXander": 46122, "Ġrear": 8286, "ctr": 24087, "Ġcheeks": 25839, "Ġhimself": 2241, "Ġresh": 27179, "Ġlighter": 14871, "Ġpans": 36209, "ĠVID": 32247, "Ġemitted": 31234, "ĠIMP": 30023, "ĠMack": 16640, "ĠGem": 15669, "Jane": 41083, "Ġtying": 28379, "Ġpollution": 12231, "wav": 45137, "tainment": 10738, "Ġaugmented": 30259, "Ġcache": 12940, "tnc": 26642, "ĠBowman": 38774, "Ġcrying": 13774, "ĠBiology": 24698, "phe": 36335, "ĠCand": 15518, "ĠToast": 46831, "ĠCanterbury": 43581, "ener": 877, "uthor": 1457, "Ġpencil": 21613, "ulas": 25283, "ĠAlways": 16622, "Ġpsychiatrist": 31207, "ĠNavajo": 47380, "Ġparticular": 1948, "GS": 14313, "Ġneutrality": 20723, "Ġelabor": 12628, "ĠAlc": 43757, "Ġbolted": 49647, "Ġdetox": 44674, "ĠFAA": 26228, "Kings": 42912, "ould": 426, "ĠCorrespond": 34428, "ĠKra": 21553, "483": 38783, "gov": 9567, "Ġceasefire": 29717, "Ġsolving": 18120, "Ġpromotional": 18767, "ĠTA": 21664, "Ġtherapist": 24636, "Ġcompilation": 23340, "ĠBrowse": 44775, "reads": 40779, "orah": 40844, "Ġheterogeneity": 49763, "ĠAden": 48500, "Ġmarkets": 5939, "Ġforc": 24686, "WP": 25527, "Ġdealing": 7219, "HC": 16045, "ĠFiscal": 33522, "Knight": 44242, "ined": 1389, "ĠCah": 44398, "ĠLGBTQ": 25172, "eland": 8822, "WS": 19416, "Ġatom": 22037, "Ġthirty": 12277, "ĠMalaysian": 30031, "xf": 26152, "uri": 9900, "Ġweaving": 44889, "olon": 43645, "Dutch": 49717, "ĠGary": 10936, "ĠFrag": 24229, "Ġbustling": 46609, "070": 43509, "ĠBarr": 27883, "abeth": 9407, "ĠTempl": 31711, "ĠIzzy": 46359, "Ġconqu": 20277, "Ġell": 30004, "ĠHaskell": 25271, "kat": 41826, "ĠMW": 29961, "Ġreminders": 40687, "shot": 9442, "client": 16366, "Ġreferred": 6412, "ĠNC": 8823, "Daniel": 19962, "Ġpairing": 27356, "ĠunfocusedRange": 30209, "Ġhonour": 15393, "ĠVall": 46929, "there": 8117, "arij": 39010, "ĠAJ": 25347, "ĠOrion": 26153, "Ġassumes": 18533, "ĠForsaken": 49116, "Ġharsh": 11859, "ijn": 48848, "ĠâĶľâĶĢâĶĢ": 35306, "Ġgap": 7625, "Ġsatisfactory": 29962, "ĠYugoslav": 30655, "/>": 15913, "ĠGen": 5215, "ĠBeasts": 37055, "Ġtrusting": 33914, "Ġferv": 28866, "ĠDod": 15990, "Ġsilver": 8465, "ĠWeak": 28788, "ĠExploration": 36806, "Ġcod": 14873, "decl": 32446, "ribly": 16358, "Ġseated": 21639, "ĠHeisman": 49537, "Agg": 46384, "Ġpecul": 18699, "ĠReply": 14883, "gomery": 20142, "Ġquoting": 28411, "anded": 12249, "ĠFinder": 42500, "Ġembracing": 26005, "ATT": 17139, "Cola": 28635, "Notes": 16130, "rior": 7701, "venture": 5388, "LESS": 48481, "Disc": 15642, "Ġdelight": 10974, "atten": 41769, "ĠPressure": 30980, "Ġinher": 10639, "1969": 38391, "ĠHuma": 49387, "Canadian": 28203, "Ġstrat": 25369, "Ġmorale": 29651, "necessary": 49986, "Ġmur": 4636, "Prin": 47231, "ification": 2649, "Chinese": 23604, "uria": 34484, "Ġsurgeons": 38479, "Ġannoying": 15774, "oded": 9043, "ĠRocket": 16920, "Ġrunning": 2491, "Ġclinically": 36688, "Â¶": 26604, "ĠSeattle": 7312, "Lv": 29507, "Ġeased": 44828, "Ġattracting": 25142, "Ġameric": 45630, "ĠIntel": 8180, "HF": 29567, "Ġhindsight": 36412, "Ġsd": 45647, "icable": 18424, "ĠICC": 32300, "alia": 9752, "[": 58, "Member": 27608, "ĠAGA": 36218, "Ġcancel": 14241, "ĠStaten": 46034, "could": 24089, "ĠPigs": 49210, "ator": 1352, "Ġcombust": 27500, "!\",": 40754, "Ġsignificantly": 5566, "ĠDistribut": 46567, "being": 11873, "ĠGlob": 40713, "Ġdough": 15756, "ivering": 35598, "Ġchlorine": 43107, "ĠPublished": 26372, "threatening": 26159, "Ġdirectory": 8619, "UN": 4944, "ĠWeapons": 18944, "Ġloneliness": 37378, "ascist": 31968, "Ġportraying": 42458, "enn": 1697, "Ġjump": 4391, "ĠHex": 22212, "ĠPAC": 16741, "eddy": 21874, "ĠFellow": 29764, "undred": 3229, "leep": 8892, "Ġemergencies": 36047, "Ġinit": 2315, ".<": 29847, "Ġirresist": 41111, "saf": 49585, "ĠPalestinians": 12890, "Ġseventeen": 38741, "Ġjewels": 42701, "chens": 29937, "FX": 17213, "Suggest": 43857, "ĠWh": 854, "Ġtram": 29957, "ĠInvaders": 41671, "Ġcradle": 49147, "Ġframes": 13431, "Jul": 16980, "Ġfeasibility": 40460, "ĠOffline": 49749, "ĠClicker": 44051, "Additionally": 23216, "FG": 30386, "2018": 7908, "million": 14100, "Ġenthusi": 11273, "ĠGifts": 48462, "oil": 9437, "ĠCGI": 36378, "Ġaqu": 14839, "Ġopt": 2172, "Ġspotted": 13489, "ĠMLB": 18532, "æ©Ł": 49960,
[...]
